{
  "version": "1.0",
  "truncation": null,
  "padding": null,
  "added_tokens": [
    {
      "id": 0,
      "content": "<s>",
      "single_word": false,
      "lstrip": false,
      "rstrip": false,
      "normalized": false,
      "special": true
    },
    {
      "id": 1,
      "content": "</s>",
      "single_word": false,
      "lstrip": false,
      "rstrip": false,
      "normalized": false,
      "special": true
    },
    {
      "id": 2,
      "content": "<unk>",
      "single_word": false,
      "lstrip": false,
      "rstrip": false,
      "normalized": false,
      "special": true
    },
    {
      "id": 3,
      "content": "<pad>",
      "single_word": false,
      "lstrip": false,
      "rstrip": false,
      "normalized": false,
      "special": true
    },
    {
      "id": 4,
      "content": "<mask>",
      "single_word": false,
      "lstrip": false,
      "rstrip": false,
      "normalized": false,
      "special": true
    },
    {
      "id": 5,
      "content": "<sep>",
      "single_word": false,
      "lstrip": false,
      "rstrip": false,
      "normalized": false,
      "special": true
    },
    {
      "id": 6,
      "content": "<think>",
      "single_word": false,
      "lstrip": false,
      "rstrip": false,
      "normalized": false,
      "special": true
    },
    {
      "id": 7,
      "content": "</think>",
      "single_word": false,
      "lstrip": false,
      "rstrip": false,
      "normalized": false,
      "special": true
    },
    {
      "id": 8,
      "content": "<prompt>",
      "single_word": false,
      "lstrip": false,
      "rstrip": false,
      "normalized": false,
      "special": true
    },
    {
      "id": 9,
      "content": "<user>",
      "single_word": false,
      "lstrip": false,
      "rstrip": false,
      "normalized": false,
      "special": true
    },
    {
      "id": 10,
      "content": "<bot>",
      "single_word": false,
      "lstrip": false,
      "rstrip": false,
      "normalized": false,
      "special": true
    }
  ],
  "normalizer": {
    "type": "NFC"
  },
  "pre_tokenizer": {
    "type": "Sequence",
    "pretokenizers": [
      {
        "type": "Split",
        "pattern": {
          "Regex": "(?i:'s|'t|'re|'ve|'m|'ll|'d)|[^\\r\\n\\p{L}\\p{N}]?\\p{L}+|\\p{N}| ?[^\\s\\p{L}\\p{N}]+[\\r\\n]*|\\s*[\\r\\n]+|\\s+(?!\\S)|\\s+"
        },
        "behavior": "Isolated",
        "invert": false
      },
      {
        "type": "ByteLevel",
        "add_prefix_space": false,
        "trim_offsets": true,
        "use_regex": false
      }
    ]
  },
  "post_processor": {
    "type": "ByteLevel",
    "add_prefix_space": true,
    "trim_offsets": false,
    "use_regex": true
  },
  "decoder": {
    "type": "ByteLevel",
    "add_prefix_space": true,
    "trim_offsets": true,
    "use_regex": true
  },
  "model": {
    "type": "BPE",
    "dropout": null,
    "unk_token": null,
    "continuing_subword_prefix": null,
    "end_of_word_suffix": null,
    "fuse_unk": false,
    "byte_fallback": false,
    "ignore_merges": false,
    "vocab": {
      "<s>": 0,
      "</s>": 1,
      "<unk>": 2,
      "<pad>": 3,
      "<mask>": 4,
      "<sep>": 5,
      "<think>": 6,
      "</think>": 7,
      "<prompt>": 8,
      "<user>": 9,
      "<bot>": 10,
      "!": 11,
      "\"": 12,
      "#": 13,
      "$": 14,
      "%": 15,
      "&": 16,
      "'": 17,
      "(": 18,
      ")": 19,
      "*": 20,
      "+": 21,
      ",": 22,
      "-": 23,
      ".": 24,
      "/": 25,
      "0": 26,
      "1": 27,
      "2": 28,
      "3": 29,
      "4": 30,
      "5": 31,
      "6": 32,
      "7": 33,
      "8": 34,
      "9": 35,
      ":": 36,
      ";": 37,
      "<": 38,
      "=": 39,
      ">": 40,
      "?": 41,
      "@": 42,
      "A": 43,
      "B": 44,
      "C": 45,
      "D": 46,
      "E": 47,
      "F": 48,
      "G": 49,
      "H": 50,
      "I": 51,
      "J": 52,
      "K": 53,
      "L": 54,
      "M": 55,
      "N": 56,
      "O": 57,
      "P": 58,
      "Q": 59,
      "R": 60,
      "S": 61,
      "T": 62,
      "U": 63,
      "V": 64,
      "W": 65,
      "X": 66,
      "Y": 67,
      "Z": 68,
      "[": 69,
      "\\": 70,
      "]": 71,
      "^": 72,
      "_": 73,
      "`": 74,
      "a": 75,
      "b": 76,
      "c": 77,
      "d": 78,
      "e": 79,
      "f": 80,
      "g": 81,
      "h": 82,
      "i": 83,
      "j": 84,
      "k": 85,
      "l": 86,
      "m": 87,
      "n": 88,
      "o": 89,
      "p": 90,
      "q": 91,
      "r": 92,
      "s": 93,
      "t": 94,
      "u": 95,
      "v": 96,
      "w": 97,
      "x": 98,
      "y": 99,
      "z": 100,
      "{": 101,
      "|": 102,
      "}": 103,
      "~": 104,
      "¡": 105,
      "¢": 106,
      "£": 107,
      "¤": 108,
      "¥": 109,
      "¦": 110,
      "§": 111,
      "¨": 112,
      "©": 113,
      "ª": 114,
      "«": 115,
      "¬": 116,
      "®": 117,
      "¯": 118,
      "°": 119,
      "±": 120,
      "²": 121,
      "³": 122,
      "´": 123,
      "µ": 124,
      "¶": 125,
      "·": 126,
      "¸": 127,
      "¹": 128,
      "º": 129,
      "»": 130,
      "¼": 131,
      "½": 132,
      "¾": 133,
      "¿": 134,
      "À": 135,
      "Á": 136,
      "Â": 137,
      "Ã": 138,
      "Ä": 139,
      "Å": 140,
      "Æ": 141,
      "Ç": 142,
      "È": 143,
      "É": 144,
      "Ê": 145,
      "Ë": 146,
      "Ì": 147,
      "Í": 148,
      "Î": 149,
      "Ï": 150,
      "Ð": 151,
      "Ñ": 152,
      "Ò": 153,
      "Ó": 154,
      "Ô": 155,
      "Õ": 156,
      "Ö": 157,
      "×": 158,
      "Ø": 159,
      "Ù": 160,
      "Ú": 161,
      "Û": 162,
      "Ü": 163,
      "Ý": 164,
      "Þ": 165,
      "ß": 166,
      "à": 167,
      "á": 168,
      "â": 169,
      "ã": 170,
      "ä": 171,
      "å": 172,
      "æ": 173,
      "ç": 174,
      "è": 175,
      "é": 176,
      "ê": 177,
      "ë": 178,
      "ì": 179,
      "í": 180,
      "î": 181,
      "ï": 182,
      "ð": 183,
      "ñ": 184,
      "ò": 185,
      "ó": 186,
      "ô": 187,
      "õ": 188,
      "ö": 189,
      "÷": 190,
      "ø": 191,
      "ù": 192,
      "ú": 193,
      "û": 194,
      "ü": 195,
      "ý": 196,
      "þ": 197,
      "ÿ": 198,
      "Ā": 199,
      "ā": 200,
      "Ă": 201,
      "ă": 202,
      "Ą": 203,
      "ą": 204,
      "Ć": 205,
      "ć": 206,
      "Ĉ": 207,
      "ĉ": 208,
      "Ċ": 209,
      "ċ": 210,
      "Č": 211,
      "č": 212,
      "Ď": 213,
      "ď": 214,
      "Đ": 215,
      "đ": 216,
      "Ē": 217,
      "ē": 218,
      "Ĕ": 219,
      "ĕ": 220,
      "Ė": 221,
      "ė": 222,
      "Ę": 223,
      "ę": 224,
      "Ě": 225,
      "ě": 226,
      "Ĝ": 227,
      "ĝ": 228,
      "Ğ": 229,
      "ğ": 230,
      "Ġ": 231,
      "ġ": 232,
      "Ģ": 233,
      "ģ": 234,
      "Ĥ": 235,
      "ĥ": 236,
      "Ħ": 237,
      "ħ": 238,
      "Ĩ": 239,
      "ĩ": 240,
      "Ī": 241,
      "ī": 242,
      "Ĭ": 243,
      "ĭ": 244,
      "Į": 245,
      "į": 246,
      "İ": 247,
      "ı": 248,
      "Ĳ": 249,
      "ĳ": 250,
      "Ĵ": 251,
      "ĵ": 252,
      "Ķ": 253,
      "ķ": 254,
      "ĸ": 255,
      "Ĺ": 256,
      "ĺ": 257,
      "Ļ": 258,
      "ļ": 259,
      "Ľ": 260,
      "ľ": 261,
      "Ŀ": 262,
      "ŀ": 263,
      "Ł": 264,
      "ł": 265,
      "Ń": 266,
      "Ġt": 267,
      "Ġa": 268,
      "he": 269,
      "in": 270,
      "re": 271,
      "on": 272,
      "Ġthe": 273,
      "at": 274,
      "er": 275,
      "Ġs": 276,
      "Ġo": 277,
      "ä¸": 278,
      "Ġc": 279,
      "en": 280,
      "Ġw": 281,
      "it": 282,
      "or": 283,
      "is": 284,
      "es": 285,
      "al": 286,
      "an": 287,
      "Ġf": 288,
      "Ġp": 289,
      "ed": 290,
      "Ġb": 291,
      "ing": 292,
      "Ġan": 293,
      "Ġof": 294,
      "çļ": 295,
      "Ġin": 296,
      "ar": 297,
      "çļĦ": 298,
      "ion": 299,
      "Ġm": 300,
      "ĠĠ": 301,
      "Ġto": 302,
      "ou": 303,
      "le": 304,
      "ic": 305,
      "Ġd": 306,
      "Ġand": 307,
      "äº": 308,
      "Ġth": 309,
      "ro": 310,
      "as": 311,
      "Ġh": 312,
      "ent": 313,
      "ct": 314,
      "Ġe": 315,
      "ä»": 316,
      "Ġre": 317,
      "om": 318,
      "Ġn": 319,
      "st": 320,
      "Ġ$": 321,
      "et": 322,
      "Ġl": 323,
      "åı": 324,
      "el": 325,
      "Ġ\\": 326,
      "Ġis": 327,
      "il": 328,
      ".Ċ": 329,
      "æľ": 330,
      "ra": 331,
      "im": 332,
      "ig": 333,
      "åħ": 334,
      "ation": 335,
      "ot": 336,
      "ut": 337,
      "ve": 338,
      "ä½": 339,
      "ĠT": 340,
      "Ġthat": 341,
      "ly": 342,
      "å¤": 343,
      "ä¹": 344,
      "æĸ": 345,
      "æĺ": 346,
      "Ġg": 347,
      "è¿": 348,
      "Ġfor": 349,
      "å®": 350,
      "id": 351,
      "Ġbe": 352,
      "ce": 353,
      "us": 354,
      "ol": 355,
      "åĪ": 356,
      "Ġon": 357,
      "ow": 358,
      "am": 359,
      "è¯": 360,
      "ver": 361,
      "ĠĠĠĠ": 362,
      "ĠI": 363,
      "åľ": 364,
      "ur": 365,
      "Ġst": 366,
      "ch": 367,
      "un": 368,
      "åĲ": 369,
      "ĠA": 370,
      "ĠS": 371,
      "{\\": 372,
      "æĺ¯": 373,
      "ä¸Ģ": 374,
      "ith": 375,
      "çĶ": 376,
      "Ġpro": 377,
      "od": 378,
      "åĽ": 379,
      "ĠC": 380,
      "ul": 381,
      "Ġit": 382,
      "ad": 383,
      "ay": 384,
      "Ġcon": 385,
      "Ġas": 386,
      "Ġ(": 387,
      "æĹ": 388,
      "ä¼": 389,
      ",å": 390,
      "æĪ": 391,
      "ç»": 392,
      "se": 393,
      "Ġwith": 394,
      "Ġal": 395,
      "Ġwh": 396,
      "ge": 397,
      "è®": 398,
      "Ġwe": 399,
      "ers": 400,
      "if": 401,
      "äºº": 402,
      "qu": 403,
      "ab": 404,
      "ir": 405,
      "Ġare": 406,
      "um": 407,
      "'s": 408,
      "Ġy": 409,
      "her": 410,
      "èĢ": 411,
      "åľ¨": 412,
      "åĬ": 413,
      "åŃ": 414,
      "å¹": 415,
      "Ġex": 416,
      "Ġcom": 417,
      "ter": 418,
      "ĠThe": 419,
      "em": 420,
      "ĠM": 421,
      "ist": 422,
      "ore": 423,
      "ä¸Ń": 424,
      "å°": 425,
      "ri": 426,
      "--": 427,
      "ew": 428,
      "ä¸į": 429,
      "æľī": 430,
      "æĿ": 431,
      "ĠP": 432,
      "åį": 433,
      "ĠB": 434,
      "res": 435,
      "op": 436,
      "ect": 437,
      "Ġ\"": 438,
      "Ġde": 439,
      "äºĨ": 440,
      "Ġv": 441,
      "mat": 442,
      "ate": 443,
      "ĊĊ": 444,
      "pp": 445,
      "igh": 446,
      "ity": 447,
      ",æ": 448,
      "ant": 449,
      "_{": 450,
      "ess": 451,
      "Ġby": 452,
      "Ġat": 453,
      "ill": 454,
      "ĠW": 455,
      "Ġor": 456,
      "ld": 457,
      "ä¸º": 458,
      "ĠF": 459,
      "ac": 460,
      "éĹ": 461,
      "Ġsu": 462,
      "ment": 463,
      "th": 464,
      "}}": 465,
      "end": 466,
      "åĨ": 467,
      "è§": 468,
      "and": 469,
      "est": 470,
      "Ġha": 471,
      "å¼": 472,
      "Ġ$\\": 473,
      "éĩ": 474,
      "å¾": 475,
      "ĠH": 476,
      "ak": 477,
      "math": 478,
      "æĢ": 479,
      "å¯": 480,
      "os": 481,
      "æī": 482,
      "our": 483,
      "ain": 484,
      "iv": 485,
      "ction": 486,
      "oc": 487,
      "oun": 488,
      "åĩ": 489,
      "rom": 490,
      "åĽ½": 491,
      "Ġus": 492,
      "ä½ľ": 493,
      "åĴ": 494,
      "ies": 495,
      "æĬ": 496,
      "Ġhe": 497,
      "Ġnot": 498,
      "ight": 499,
      "Ġ-": 500,
      "art": 501,
      "åĴĮ": 502,
      "Ġr": 503,
      "ort": 504,
      "ĠN": 505,
      "ure": 506,
      "æĸĩ": 507,
      "è¿Ļ": 508,
      ".ĊĊ": 509,
      "ive": 510,
      "te": 511,
      "æĸ°": 512,
      "Ġfrom": 513,
      "Ġhave": 514,
      "ial": 515,
      "å¤§": 516,
      "ĠR": 517,
      "å·": 518,
      "Ġthis": 519,
      "ap": 520,
      "Ġse": 521,
      "}Ċ": 522,
      "Ġwas": 523,
      "å½": 524,
      "pl": 525,
      "çİ": 526,
      "Ġcan": 527,
      "çī": 528,
      "ĠL": 529,
      "å¿": 530,
      "ĥ½": 531,
      "èĩ": 532,
      "ç§": 533,
      "æŃ": 534,
      "åº": 535,
      "ä»¥": 536,
      "æķ": 537,
      "Ġcomp": 538,
      "éĢ": 539,
      "ren": 540,
      "all": 541,
      "å±": 542,
      "çĽ": 543,
      "ĠD": 544,
      "ine": 545,
      "è¡": 546,
      "Ġch": 547,
      "ag": 548,
      "age": 549,
      "ust": 550,
      "Ġwor": 551,
      "æĹ¶": 552,
      "Ġsh": 553,
      "å¸": 554,
      "åĮ": 555,
      "Ġun": 556,
      "ä¸ª": 557,
      "ph": 558,
      "iz": 559,
      "ĠE": 560,
      "ich": 561,
      "pt": 562,
      "ĠĠĠĠĠĠĠĠ": 563,
      "Ġyou": 564,
      "éĿ": 565,
      "Ġle": 566,
      "}$": 567,
      "ome": 568,
      "Ġab": 569,
      "Ġk": 570,
      "red": 571,
      "å¥": 572,
      "å¹´": 573,
      "per": 574,
      "ould": 575,
      "çĶŁ": 576,
      "Ġj": 577,
      "ä½ĵ": 578,
      "ä¹ĭ": 579,
      "æĥ": 580,
      "ost": 581,
      "ang": 582,
      "The": 583,
      "out": 584,
      "Ġwhe": 585,
      "Ġsp": 586,
      "ast": 587,
      "åİ": 588,
      ".\"": 589,
      "ĠG": 590,
      "ell": 591,
      "ä»ĸ": 592,
      "ally": 593,
      "æ°": 594,
      "ĠIn": 595,
      "ud": 596,
      "¦ģ": 597,
      "æł": 598,
      "ff": 599,
      "ok": 600,
      "èµ": 601,
      "ä¸Ĭ": 602,
      "åĩº": 603,
      "è¦ģ": 604,
      "ec": 605,
      "Ġhas": 606,
      "ations": 607,
      "åŃ¦": 608,
      "Ġim": 609,
      "ĠJ": 610,
      "æĪĳ": 611,
      "Ġall": 612,
      "ite": 613,
      "^{": 614,
      "çº": 615,
      "Ġ&": 616,
      "æĦ": 617,
      "æĿ¥": 618,
      "æ³": 619,
      ",\"": 620,
      "ult": 621,
      "ther": 622,
      "Ġwhich": 623,
      "ition": 624,
      "ood": 625,
      "og": 626,
      "ard": 627,
      "ä¼ļ": 628,
      "ĠO": 629,
      "eg": 630,
      "}\\": 631,
      "ated": 632,
      "èĢħ": 633,
      "gh": 634,
      "æĶ": 635,
      "äºİ": 636,
      "ub": 637,
      "ass": 638,
      "åĪ°": 639,
      "orm": 640,
      "åĳ": 641,
      "å¯¹": 642,
      "Ġdo": 643,
      "ide": 644,
      "Ġmore": 645,
      "èĢĮ": 646,
      "able": 647,
      "åıĳ": 648,
      "ä¸İ": 649,
      "ep": 650,
      "èĩª": 651,
      "ear": 652,
      "ä»¬": 653,
      "ram": 654,
      "ack": 655,
      "int": 656,
      "ans": 657,
      "up": 658,
      "Ġcl": 659,
      "ign": 660,
      "çľ": 661,
      "è´": 662,
      "ĠĠĠ": 663,
      "Ġnew": 664,
      "é¢": 665,
      "å®¶": 666,
      "éģ": 667,
      "Ġthey": 668,
      "Ġres": 669,
      "ime": 670,
      "Ġ=": 671,
      "----": 672,
      "æŀ": 673,
      "ue": 674,
      "æĪĲ": 675,
      "cl": 676,
      "ä¹Ł": 677,
      "ib": 678,
      "der": 679,
      "ft": 680,
      "Ġbut": 681,
      "ens": 682,
      "ä¿": 683,
      "æµ": 684,
      "ple": 685,
      "ma": 686,
      "ĠU": 687,
      "ta": 688,
      "..": 689,
      "Ġad": 690,
      "ç«": 691,
      "çİ°": 692,
      "è¾": 693,
      "cc": 694,
      "Ġme": 695,
      "ound": 696,
      "Ġar": 697,
      "du": 698,
      "Ġone": 699,
      "ik": 700,
      "åľ°": 701,
      "ook": 702,
      "xt": 703,
      "ong": 704,
      "ia": 705,
      ")$": 706,
      "æ²": 707,
      "ough": 708,
      "ous": 709,
      "åĵ": 710,
      "rac": 711,
      "èĥ½": 712,
      "ä¼ł": 713,
      "Ġtheir": 714,
      "ary": 715,
      "éĻ": 716,
      "ĠTh": 717,
      "Ġint": 718,
      "ical": 719,
      "Ġwork": 720,
      "cal": 721,
      "(\\": 722,
      "å¤ļ": 723,
      "è¯´": 724,
      "Ġwill": 725,
      "éĹ»": 726,
      "Ġcont": 727,
      "çŃ": 728,
      "ä¸»": 729,
      "'t": 730,
      "so": 731,
      "ä»£": 732,
      "ªĴ": 733,
      "ru": 734,
      "äºĭ": 735,
      "ry": 736,
      "ach": 737,
      "Ġne": 738,
      "ç¤": 739,
      "ame": 740,
      "ions": 741,
      "Ġsa": 742,
      "Ġapp": 743,
      "ĠĊ": 744,
      "ence": 745,
      "Ġout": 746,
      "ç¬": 747,
      "act": 748,
      "æĬ¥": 749,
      "æĸ°éĹ»": 750,
      "fe": 751,
      "æİ": 752,
      "åı¯": 753,
      "ely": 754,
      "ber": 755,
      "ä¹¦": 756,
      "åªĴ": 757,
      "Ġper": 758,
      "çĶ¨": 759,
      "==": 760,
      "ace": 761,
      "åĲİ": 762,
      "ays": 763,
      "åĮĸ": 764,
      "ose": 765,
      "Ġfun": 766,
      "å®ŀ": 767,
      "çĲ": 768,
      "æ´": 769,
      "Ġits": 770,
      "ice": 771,
      "ind": 772,
      "æĸ¹": 773,
      "¦Ĥ": 774,
      "Ġen": 775,
      "very": 776,
      "ip": 777,
      "Ġman": 778,
      "gram": 779,
      "av": 780,
      "Ġabout": 781,
      "Ġdis": 782,
      "æĽ": 783,
      "Ġother": 784,
      "åħ¶": 785,
      "ress": 786,
      "are": 787,
      "ance": 788,
      "èī": 789,
      "form": 790,
      "ç½": 791,
      "Ġso": 792,
      "Ġthere": 793,
      "Ġqu": 794,
      "è°": 795,
      "Ġev": 796,
      "),": 797,
      "æľ¬": 798,
      "Ġrep": 799,
      "ake": 800,
      "Ġthan": 801,
      "ĠK": 802,
      "over": 803,
      "Ġpl": 804,
      "ase": 805,
      "Ġob": 806,
      "æĮ": 807,
      "æ±": 808,
      "åī": 809,
      "Ġpart": 810,
      "Ġwho": 811,
      "Ġif": 812,
      "yp": 813,
      "ject": 814,
      "è¿ĩ": 815,
      "éĺ": 816,
      "Ġalso": 817,
      "rent": 818,
      "_{\\": 819,
      "è¡Į": 820,
      "ç¾": 821,
      "ents": 822,
      "ory": 823,
      "åĬĽ": 824,
      "å°±": 825,
      "mer": 826,
      "ors": 827,
      "æĢ§": 828,
      "Ġ[": 829,
      "Ġwere": 830,
      "ä¸ĭ": 831,
      "con": 832,
      "Ġsome": 833,
      "åĲĮ": 834,
      "}{": 835,
      "one": 836,
      "éĿ¢": 837,
      "æĭ": 838,
      "Ġprogram": 839,
      "ä¸ŃåĽ½": 840,
      "Ġfunction": 841,
      "Ġbec": 842,
      "ç»ı": 843,
      "åªĴä½ĵ": 844,
      "ire": 845,
      "æ¯": 846,
      "æ¸": 847,
      "Ġpe": 848,
      "vel": 849,
      "lic": 850,
      "çĲĨ": 851,
      "ref": 852,
      "low": 853,
      "Ġmod": 854,
      "åĬ¨": 855,
      "de": 856,
      "å¾Ĺ": 857,
      "å¿ĥ": 858,
      "right": 859,
      "ree": 860,
      "ä¾": 861,
      "ile": 862,
      "éģĵ": 863,
      "ike": 864,
      "æ³ķ": 865,
      "çķ": 866,
      "ç§į": 867,
      ",é": 868,
      "æ°ĳ": 869,
      "çŁ": 870,
      "ari": 871,
      "erv": 872,
      "row": 873,
      "éĩį": 874,
      "Ġtime": 875,
      ",\\": 876,
      "egin": 877,
      "Ġsy": 878,
      "æĥħ": 879,
      "\",": 880,
      "Ġtw": 881,
      "aus": 882,
      "çĦ": 883,
      "begin": 884,
      "Ġup": 885,
      "frac": 886,
      "ĠIt": 887,
      "$,": 888,
      "Ġdif": 889,
      "åŁ": 890,
      "æīĢ": 891,
      "{}": 892,
      "ople": 893,
      "ob": 894,
      "åŃĲ": 895,
      "ç¤¾": 896,
      "Ġwhen": 897,
      "Ġwould": 898,
      "æĻ": 899,
      "éĽ": 900,
      "çŃī": 901,
      "Ġcons": 902,
      "è¯Ĺ": 903,
      "ates": 904,
      "Ġtr": 905,
      "Ġsaid": 906,
      "è®º": 907,
      "ener": 908,
      "çĿ": 909,
      "ount": 910,
      "text": 911,
      "ä¸ļ": 912,
      "ä¸Ģä¸ª": 913,
      "ä»İ": 914,
      "Ġany": 915,
      "æı": 916,
      "æĦı": 917,
      "the": 918,
      "Ġover": 919,
      "Ġpo": 920,
      "mathb": 921,
      "Ġrec": 922,
      "ĠY": 923,
      "åĪĨ": 924,
      "å¦Ĥ": 925,
      "sp": 926,
      "Ġbeen": 927,
      "Ġinter": 928,
      "ds": 929,
      "irst": 930,
      "own": 931,
      "Ġhis": 932,
      "éĥ": 933,
      "imes": 934,
      "rib": 935,
      "ode": 936,
      "rit": 937,
      "ie": 938,
      "çĦ¶": 939,
      "è¿Ľ": 940,
      "Ġimp": 941,
      "Ġwhat": 942,
      "æĹ¥": 943,
      "ĠAn": 944,
      "èĬ": 945,
      "Ġtwo": 946,
      "Ġpeople": 947,
      "æĴ": 948,
      "eth": 949,
      "æģ": 950,
      "Ġyear": 951,
      "Ġonly": 952,
      "ric": 953,
      "mathcal": 954,
      "Ġbet": 955,
      "è½": 956,
      "Ġthem": 957,
      "åħ³": 958,
      "æĹł": 959,
      "ks": 960,
      "ĠSt": 961,
      "æ¬": 962,
      "Ġsuch": 963,
      "å±ķ": 964,
      "çĤ": 965,
      "ces": 966,
      "rm": 967,
      "In": 968,
      "Ġwhere": 969,
      "åħ¨": 970,
      "Ġour": 971,
      "Ġinto": 972,
      "we": 973,
      "ular": 974,
      "nal": 975,
      "Ġuse": 976,
      "vers": 977,
      "ç¥": 978,
      "Ġexp": 979,
      "è¶": 980,
      "ä¸ĸ": 981,
      "æľĢ": 982,
      "eta": 983,
      "åĨĻ": 984,
      "ings": 985,
      ").": 986,
      "erm": 987,
      "Ġhow": 988,
      "angu": 989,
      "ĠWe": 990,
      "éĥ½": 991,
      "Ġdef": 992,
      "Ġacc": 993,
      "å°ı": 994,
      "ç©": 995,
      "Ġag": 996,
      "Ġkn": 997,
      "Ġsim": 998,
      "Ġlike": 999,
      "èĭ": 1000,
      "åĨħ": 1001,
      "ble": 1002,
      "ating": 1003,
      "Ġtyp": 1004,
      "Ġhad": 1005,
      "å½ĵ": 1006,
      "æĺİ": 1007,
      "éķ": 1008,
      "Ġdes": 1009,
      "åĲĪ": 1010,
      "Ġnum": 1011,
      "ĠV": 1012,
      "çĿĢ": 1013,
      "ian": 1014,
      "è®°": 1015,
      "ause": 1016,
      "Ġte": 1017,
      "Ġval": 1018,
      "éļ": 1019,
      "æ·": 1020,
      "ll": 1021,
      "èģ": 1022,
      "hat": 1023,
      "å¤©": 1024,
      "Ġind": 1025,
      "éĹ´": 1026,
      "åĢ": 1027,
      "clud": 1028,
      "Ġno": 1029,
      "è·": 1030,
      "Ġpre": 1031,
      "ics": 1032,
      "Ġset": 1033,
      "åĵģ": 1034,
      "ĠCh": 1035,
      "åı²": 1036,
      "ord": 1037,
      "Ġmost": 1038,
      "Ġdiffe": 1039,
      "çĽ¸": 1040,
      "ç¨": 1041,
      "Ġfirst": 1042,
      "Ġthen": 1043,
      "Ġcomm": 1044,
      "é¢ĺ": 1045,
      "è¡¨": 1046,
      "ata": 1047,
      "{e": 1048,
      "ç¬¬": 1049,
      "Ġthese": 1050,
      "ark": 1051,
      "çĶ»": 1052,
      "Ġgener": 1053,
      "dition": 1054,
      "å¼Ģ": 1055,
      ",ä½": 1056,
      "æĪĳä»¬": 1057,
      "ĠThis": 1058,
      "ution": 1059,
      "«ĺ": 1060,
      "æŃ¤": 1061,
      "Ġtra": 1062,
      "ish": 1063,
      "éĥ¨": 1064,
      "$\\": 1065,
      "mb": 1066,
      "ä¸ī": 1067,
      "åĽł": 1068,
      "åģ": 1069,
      "ove": 1070,
      "æľ¯": 1071,
      "ç½ĳ": 1072,
      "Ġlangu": 1073,
      "ps": 1074,
      "ink": 1075,
      "abel": 1076,
      "å·¥": 1077,
      "left": 1078,
      "æĴŃ": 1079,
      "ç¾İ": 1080,
      "che": 1081,
      "ç¼": 1082,
      "æĥ³": 1083,
      "å¥½": 1084,
      "åº¦": 1085,
      "ism": 1086,
      "Ġass": 1087,
      "}(": 1088,
      "ournal": 1089,
      "\\end": 1090,
      "åīį": 1091,
      "les": 1092,
      "äºĽ": 1093,
      "Ġfood": 1094,
      "ä¿¡": 1095,
      "stem": 1096,
      "ists": 1097,
      "Ġgr": 1098,
      "é£": 1099,
      "è¢": 1100,
      "ative": 1101,
      "å»": 1102,
      "åħ¬": 1103,
      "Ġsub": 1104,
      "é«ĺ": 1105,
      "Ġgo": 1106,
      "$.": 1107,
      "ific": 1108,
      "çĤ¹": 1109,
      "ages": 1110,
      "ork": 1111,
      "Ġjust": 1112,
      "å®ļ": 1113,
      "åĲį": 1114,
      "Ġrel": 1115,
      "åĪĽ": 1116,
      "Ġrest": 1117,
      "tain": 1118,
      "å§": 1119,
      "çĻ": 1120,
      "æ´»": 1121,
      "çī¹": 1122,
      ")\\": 1123,
      "\\begin": 1124,
      "å¢": 1125,
      "å£": 1126,
      "--------": 1127,
      "è¯»": 1128,
      "Ġneed": 1129,
      "Ġclass": 1130,
      "éĩĮ": 1131,
      "ollow": 1132,
      "Ġmany": 1133,
      "éķ¿": 1134,
      "è¿ĺ": 1135,
      "ĠNew": 1136,
      "ov": 1137,
      "å¹³": 1138,
      "ys": 1139,
      "Ġreg": 1140,
      "çľĭ": 1141,
      "cre": 1142,
      "ational": 1143,
      "Ġpos": 1144,
      "Ġoff": 1145,
      "Ġget": 1146,
      "Ġmat": 1147,
      "ced": 1148,
      "éĤ": 1149,
      "ility": 1150,
      "ise": 1151,
      "éĢļ": 1152,
      "\\Ċ": 1153,
      "å¼ı": 1154,
      "æĢĿ": 1155,
      "Ġcor": 1156,
      "çł": 1157,
      "ç²": 1158,
      "ä¹ī": 1159,
      "åĿ": 1160,
      "èµ·": 1161,
      "æł·": 1162,
      "çī©": 1163,
      "è§Ĩ": 1164,
      "cite": 1165,
      "Ġpub": 1166,
      "Ġvari": 1167,
      "edia": 1168,
      "ual": 1169,
      "ities": 1170,
      "Ġcall": 1171,
      "èĪ": 1172,
      "amb": 1173,
      "uch": 1174,
      "Ġro": 1175,
      "åįģ": 1176,
      "Ġunder": 1177,
      "ons": 1178,
      "urn": 1179,
      "ible": 1180,
      "line": 1181,
      "Ġcol": 1182,
      "Ġprov": 1183,
      "é¡": 1184,
      "æĦŁ": 1185,
      "åıĬ": 1186,
      "ied": 1187,
      "Ġinv": 1188,
      "ments": 1189,
      "çĪ": 1190,
      "ne": 1191,
      "label": 1192,
      "Ġresult": 1193,
      "ues": 1194,
      "Ġexam": 1195,
      "Ġinst": 1196,
      "æŃ£": 1197,
      "Ġfollow": 1198,
      "Ġ+": 1199,
      "Ġyour": 1200,
      "ail": 1201,
      "æĶ¿": 1202,
      "ç®": 1203,
      "æĽ´": 1204,
      "Ġsystem": 1205,
      "ss": 1206,
      "å¤ĸ": 1207,
      "Ġsm": 1208,
      "meric": 1209,
      "ruct": 1210,
      "åħ¥": 1211,
      "fter": 1212,
      "Ġsol": 1213,
      "ç±": 1214,
      "Ġequ": 1215,
      "Ġused": 1216,
      "Ġeach": 1217,
      "Ġmay": 1218,
      "Ġbecause": 1219,
      "oy": 1220,
      "Ġeff": 1221,
      "da": 1222,
      "è±": 1223,
      "},": 1224,
      "è¢«": 1225,
      "====": 1226,
      "}_": 1227,
      "Ġsays": 1228,
      "Ġpoint": 1229,
      "vi": 1230,
      "Ġdata": 1231,
      "pha": 1232,
      "wn": 1233,
      "arg": 1234,
      "resent": 1235,
      "åİĨ": 1236,
      "Ġed": 1237,
      ")Ċ": 1238,
      "Ġway": 1239,
      "cent": 1240,
      "}^": 1241,
      "Ġform": 1242,
      "oth": 1243,
      "ç³": 1244,
      "rough": 1245,
      "å½¢": 1246,
      "ures": 1247,
      "Ġconst": 1248,
      "alpha": 1249,
      "Ġsame": 1250,
      "ween": 1251,
      "è¨": 1252,
      "ç¤¾ä¼ļ": 1253,
      "Ġdifferent": 1254,
      "è¨Ģ": 1255,
      "ond": 1256,
      "å·±": 1257,
      "é¦": 1258,
      "Ġpr": 1259,
      "åŃĹ": 1260,
      "Ġmodel": 1261,
      "ize": 1262,
      "ased": 1263,
      "blem": 1264,
      "ined": 1265,
      "Ġ{\\": 1266,
      "äºĮ": 1267,
      ",åı": 1268,
      "ç»Ł": 1269,
      "èīº": 1270,
      "çķĮ": 1271,
      "raph": 1272,
      "Ġra": 1273,
      "read": 1274,
      "Ġoper": 1275,
      "ful": 1276,
      "ĠUn": 1277,
      "Ġco": 1278,
      "Ġloc": 1279,
      "reat": 1280,
      "ild": 1281,
      "ident": 1282,
      "Ġinte": 1283,
      "Ġbetween": 1284,
      "Ġph": 1285,
      "ten": 1286,
      "Ġprodu": 1287,
      "è§£": 1288,
      "Ġcode": 1289,
      ",å°": 1290,
      "its": 1291,
      "å®¹": 1292,
      "è¥": 1293,
      "Ġdoes": 1294,
      "Ġbl": 1295,
      "Ġeven": 1296,
      "ange": 1297,
      "ince": 1298,
      "ĠAmeric": 1299,
      "æ·±": 1300,
      "Ġevery": 1301,
      "ick": 1302,
      "_i": 1303,
      "Ġfl": 1304,
      "Ġfe": 1305,
      "è§Ĥ": 1306,
      "Ġcould": 1307,
      "çĶ±": 1308,
      "ethod": 1309,
      "to": 1310,
      "Ġsc": 1311,
      "aur": 1312,
      "èĩªå·±": 1313,
      "åĲĳ": 1314,
      "çīĪ": 1315,
      "ä¼Ĺ": 1316,
      "Ġreport": 1317,
      "æĸĩåŃ¦": 1318,
      "éľ": 1319,
      "Ġem": 1320,
      "ĠĠĠĠĠĠĠ": 1321,
      "ĠFor": 1322,
      "ix": 1323,
      "Ġpol": 1324,
      "ines": 1325,
      "Ġtrans": 1326,
      "Ġpar": 1327,
      "Ġwell": 1328,
      "ning": 1329,
      "ç³»": 1330,
      "Ġatt": 1331,
      "Ġproblem": 1332,
      "Ġinclud": 1333,
      "æıĲ": 1334,
      "\"çļĦ": 1335,
      "ç¥ŀ": 1336,
      "æį": 1337,
      "ĠHe": 1338,
      "åİ»": 1339,
      "Ġsee": 1340,
      "ots": 1341,
      "åĪ¶": 1342,
      ".\"Ċ": 1343,
      "è¥¿": 1344,
      "è¯Ń": 1345,
      "æµģ": 1346,
      "Ġele": 1347,
      "Ġ{": 1348,
      "å»º": 1349,
      "æľĪ": 1350,
      "ambda": 1351,
      "ting": 1352,
      "çŁ¥": 1353,
      "æľŁ": 1354,
      "Ġsupp": 1355,
      "Ġmake": 1356,
      "ming": 1357,
      "Ġthose": 1358,
      "Ġjournal": 1359,
      "åıĳå±ķ": 1360,
      ",åľ¨": 1361,
      "})": 1362,
      ",è¿Ļ": 1363,
      "ient": 1364,
      "çľŁ": 1365,
      "Ġshow": 1366,
      "äº§": 1367,
      "åıĺ": 1368,
      "Ġact": 1369,
      "ä½į": 1370,
      "aurant": 1371,
      "Ġknow": 1372,
      "Ġshe": 1373,
      "èĲ": 1374,
      "åıĹ": 1375,
      "èº": 1376,
      "tern": 1377,
      "æķ°": 1378,
      "æĸĩåĮĸ": 1379,
      "Ġstr": 1380,
      "å¹¿": 1381,
      "cess": 1382,
      "åı°": 1383,
      "Ġvery": 1384,
      "Ġyears": 1385,
      "å±±": 1386,
      "Ġnumber": 1387,
      "ç«ĭ": 1388,
      "ator": 1389,
      "çĽ®": 1390,
      "ĠBut": 1391,
      "ç²¾": 1392,
      "è±¡": 1393,
      "Ġdist": 1394,
      "ä¹Ī": 1395,
      "Ġusing": 1396,
      "ç´": 1397,
      "åºĶ": 1398,
      "amma": 1399,
      "æĪĺ": 1400,
      "Ġgiv": 1401,
      "å¾Ī": 1402,
      "ĠAnd": 1403,
      "Ġstud": 1404,
      "igma": 1405,
      "cept": 1406,
      "ck": 1407,
      "Ġrem": 1408,
      "ä¸¤": 1409,
      "hed": 1410,
      "rop": 1411,
      "Ġam": 1412,
      "æĪĸ": 1413,
      "hen": 1414,
      "Ġher": 1415,
      "ract": 1416,
      "çģ": 1417,
      "ily": 1418,
      "Ġnow": 1419,
      "mathbb": 1420,
      "å¸¸": 1421,
      "elta": 1422,
      "Ġext": 1423,
      "å°Ĩ": 1424,
      "Ġbu": 1425,
      "Ġmethod": 1426,
      "éĹ®": 1427,
      "æŁ": 1428,
      "Ġcre": 1429,
      "Ġmedia": 1430,
      "Ġcount": 1431,
      "ade": 1432,
      "We": 1433,
      ",ä»ĸ": 1434,
      "ts": 1435,
      "é£İ": 1436,
      "Ġfact": 1437,
      "velop": 1438,
      "Ġspec": 1439,
      "éĩı": 1440,
      "quation": 1441,
      "Ġdec": 1442,
      "Ġobject": 1443,
      "old": 1444,
      "}_{": 1445,
      ",ä¸į": 1446,
      "Ġshould": 1447,
      "èº«": 1448,
      "åĬł": 1449,
      ",èĢĮ": 1450,
      "aking": 1451,
      "Ġnews": 1452,
      "ex": 1453,
      "åı¯ä»¥": 1454,
      "å¼º": 1455,
      "ever": 1456,
      "ç»ĵ": 1457,
      "fore": 1458,
      "Ġwant": 1459,
      "æ¬¡": 1460,
      ",ä½Ĩ": 1461,
      "ower": 1462,
      "formation": 1463,
      "æľº": 1464,
      "iel": 1465,
      "æ¶": 1466,
      "=\\": 1467,
      "Ġmuch": 1468,
      "Ġresp": 1469,
      "ality": 1470,
      "Ġexample": 1471,
      "Ġlanguage": 1472,
      "ven": 1473,
      "olog": 1474,
      "èĻ": 1475,
      "åĲĦ": 1476,
      "ray": 1477,
      "iness": 1478,
      "èĥ": 1479,
      "ized": 1480,
      "\\in": 1481,
      "æģ¯": 1482,
      "Ġx": 1483,
      "ç¡": 1484,
      "{equation": 1485,
      "ty": 1486,
      ",Ċ": 1487,
      "Ġent": 1488,
      "Ġthrough": 1489,
      "å®ĥ": 1490,
      "Ġrestaurant": 1491,
      "of": 1492,
      "other": 1493,
      "Ġche": 1494,
      "éĤ£": 1495,
      "èį": 1496,
      "Ġown": 1497,
      "è®¤": 1498,
      "Ġcase": 1499,
      "put": 1500,
      "Th": 1501,
      "gan": 1502,
      "ee": 1503,
      "å½±": 1504,
      "Ġread": 1505,
      "ically": 1506,
      "Ġafter": 1507,
      "çĭ": 1508,
      "_\\": 1509,
      "åħĪ": 1510,
      "æ²¡": 1511,
      "åĽĽ": 1512,
      "elf": 1513,
      "Ġsur": 1514,
      ":Ċ": 1515,
      "èĤ": 1516,
      "è§ģ": 1517,
      "åľº": 1518,
      "åħ±": 1519,
      "èĬĤ": 1520,
      "ually": 1521,
      ",ä¹Ł": 1522,
      "Ġ'": 1523,
      "ict": 1524,
      "ç¨ĭ": 1525,
      "Ġmy": 1526,
      "iss": 1527,
      "aper": 1528,
      "ä½ľåĵģ": 1529,
      "èĩ³": 1530,
      "~\\": 1531,
      "ran": 1532,
      "ron": 1533,
      "ath": 1534,
      "Ġcomple": 1535,
      "åĸ": 1536,
      "\".": 1537,
      "åı¤": 1538,
      "ger": 1539,
      "Ġserv": 1540,
      "}^{": 1541,
      "Ġsmall": 1542,
      ":ĊĊ": 1543,
      "æķĻ": 1544,
      "usiness": 1545,
      "ä¼łæĴŃ": 1546,
      "Ġmem": 1547,
      "çĶµ": 1548,
      "ization": 1549,
      "çİĭ": 1550,
      "ä»»": 1551,
      "ä¸ľ": 1552,
      "Ġpartic": 1553,
      "Ġadd": 1554,
      "åİŁ": 1555,
      "ç±»": 1556,
      "phi": 1557,
      "als": 1558,
      "æŀľ": 1559,
      "çĥ": 1560,
      "æ°´": 1561,
      "mu": 1562,
      "ward": 1563,
      "Ġback": 1564,
      "ä½¿": 1565,
      "]{}": 1566,
      "èģĶ": 1567,
      "part": 1568,
      "è¯Ŀ": 1569,
      "æ±Ĥ": 1570,
      "Ġke": 1571,
      "Ġtype": 1572,
      "æ²»": 1573,
      "åĪ©": 1574,
      "Ġhigh": 1575,
      "åĳ½": 1576,
      "éŁ": 1577,
      "å·¥ä½ľ": 1578,
      "ater": 1579,
      "Ġfin": 1580,
      "éĶ": 1581,
      ":\"": 1582,
      "Ġdisc": 1583,
      "Ġcomput": 1584,
      "æ®": 1585,
      "æ¯Ķ": 1586,
      "}ĊĊ": 1587,
      "è®©": 1588,
      "any": 1589,
      "Ġlook": 1590,
      "èİ": 1591,
      "ices": 1592,
      "set": 1593,
      "ox": 1594,
      "oci": 1595,
      "Ġmin": 1596,
      "til": 1597,
      "Ġlong": 1598,
      "Ġthink": 1599,
      "aw": 1600,
      ",å¹": 1601,
      "ĠCom": 1602,
      "Ġdevelop": 1603,
      "ç¦": 1604,
      "'re": 1605,
      "Ġcur": 1606,
      "è¯Ĩ": 1607,
      "Ġworld": 1608,
      "mathbf": 1609,
      "ection": 1610,
      "uring": 1611,
      "Ġboth": 1612,
      "ited": 1613,
      "åįİ": 1614,
      "é©": 1615,
      "-\\": 1616,
      "åħ·": 1617,
      "Ġexpl": 1618,
      "enc": 1619,
      "oup": 1620,
      "Ġright": 1621,
      "Ġexper": 1622,
      "ax": 1623,
      "ier": 1624,
      "Ġfind": 1625,
      "çłĶ": 1626,
      "Ġpublic": 1627,
      "ash": 1628,
      "å·²": 1629,
      "lambda": 1630,
      "åŁº": 1631,
      "^{\\": 1632,
      "Ġprocess": 1633,
      "rest": 1634,
      "angle": 1635,
      "èĳ": 1636,
      "èī²": 1637,
      "åĽ¾": 1638,
      "Ġdire": 1639,
      "ef": 1640,
      "pr": 1641,
      "arch": 1642,
      "Ġrequ": 1643,
      "æĤ": 1644,
      "ock": 1645,
      "éĢł": 1646,
      "ç¼ĸ": 1647,
      "-f": 1648,
      "æķħ": 1649,
      "Ġappro": 1650,
      "ĠAs": 1651,
      "com": 1652,
      "å¯¼": 1653,
      "pro": 1654,
      "Ġdon": 1655,
      "ĠIf": 1656,
      "ç©¶": 1657,
      "Ġterm": 1658,
      "-b": 1659,
      "Ġnon": 1660,
      "igure": 1661,
      "å¤Ħ": 1662,
      "Ġstate": 1663,
      "Ġaut": 1664,
      "Ġwrit": 1665,
      "ä½ķ": 1666,
      "ĠPro": 1667,
      "éĽĨ": 1668,
      ".S": 1669,
      "gor": 1670,
      "ho": 1671,
      "Ġimport": 1672,
      "ted": 1673,
      "uss": 1674,
      ";Ċ": 1675,
      "åģļ": 1676,
      "çĶŁæ´»": 1677,
      "app": 1678,
      "Ġsom": 1679,
      "rence": 1680,
      "å¸Ĥ": 1681,
      "Ġ${\\": 1682,
      "Ġvalue": 1683,
      "åĪĻ": 1684,
      "Ġop": 1685,
      "åįĹ": 1686,
      "ider": 1687,
      "Ġsign": 1688,
      "**": 1689,
      "åĪ«": 1690,
      "ä»¶": 1691,
      ",æĺ¯": 1692,
      "led": 1693,
      "sub": 1694,
      "air": 1695,
      "Ġhel": 1696,
      "Ġsay": 1697,
      "Ġgood": 1698,
      "ature": 1699,
      "æīĭ": 1700,
      "ploy": 1701,
      "Ġstart": 1702,
      "æĮģ": 1703,
      "Ġac": 1704,
      "åİĨåı²": 1705,
      "sigma": 1706,
      "è¾¾": 1707,
      ".,": 1708,
      "Ġend": 1709,
      "sc": 1710,
      "Ġbeing": 1711,
      "overn": 1712,
      "day": 1713,
      "Ġbusiness": 1714,
      "æł¼": 1715,
      "}{\\": 1716,
      "arge": 1717,
      "Ġfam": 1718,
      "èīºæľ¯": 1719,
      "Ġdid": 1720,
      "åĽŀ": 1721,
      "åĶ": 1722,
      "è¯Ħ": 1723,
      "ithm": 1724,
      "Ġorder": 1725,
      "Ġstill": 1726,
      ",åį": 1727,
      "æµ·": 1728,
      "éĿŀ": 1729,
      "æ¡": 1730,
      "ience": 1731,
      ".è¿Ļ": 1732,
      "è®¾": 1733,
      "Ġmon": 1734,
      "par": 1735,
      "Ġline": 1736,
      "ä»Ĭ": 1737,
      "æĬĬ": 1738,
      ",æī": 1739,
      "é»": 1740,
      "Ġret": 1741,
      "Ġstat": 1742,
      "Ġref": 1743,
      "ç«ł": 1744,
      "Ġbel": 1745,
      "å¹¶": 1746,
      "mathrm": 1747,
      "éª": 1748,
      "åĬ¡": 1749,
      "å®ī": 1750,
      "akes": 1751,
      "arn": 1752,
      "gg": 1753,
      "æĹ¶ä»£": 1754,
      "æ¸ħ": 1755,
      "ctions": 1756,
      "ĠAl": 1757,
      "ç¬Ķ": 1758,
      "åıª": 1759,
      "Ġprogramming": 1760,
      "åħļ": 1761,
      "ential": 1762,
      "Ġwhile": 1763,
      "åĨħå®¹": 1764,
      "æ²¡æľī": 1765,
      "ivers": 1766,
      "çļĦäºº": 1767,
      "##": 1768,
      "chn": 1769,
      "Ġposs": 1770,
      "ote": 1771,
      "è¿ĳ": 1772,
      "å°ĳ": 1773,
      "gr": 1774,
      "ases": 1775,
      "æº": 1776,
      "èµĦ": 1777,
      "ern": 1778,
      "Ġinformation": 1779,
      "ability": 1780,
      "è¿Ĳ": 1781,
      "ĠÐ": 1782,
      "here": 1783,
      "{al": 1784,
      ",ä»¥": 1785,
      "Ġhand": 1786,
      "gy": 1787,
      "ç¯": 1788,
      "Ġi": 1789,
      "Ġrun": 1790,
      "lect": 1791,
      "çĪ±": 1792,
      "ä¸ĵ": 1793,
      "Ġest": 1794,
      "æīį": 1795,
      "It": 1796,
      "ull": 1797,
      "å°±æĺ¯": 1798,
      "err": 1799,
      "å²": 1800,
      "Ġgiven": 1801,
      "Ġincre": 1802,
      "çĽ´": 1803,
      "$$": 1804,
      "hes": 1805,
      "Ġsupport": 1806,
      "Ġmade": 1807,
      "ively": 1808,
      "get": 1809,
      "ilon": 1810,
      "Ġdet": 1811,
      "Ġanal": 1812,
      "pi": 1813,
      "èŀ": 1814,
      "Ġcommun": 1815,
      "tle": 1816,
      "Ġmain": 1817,
      "ä¸ĸçķĮ": 1818,
      "ries": 1819,
      "riv": 1820,
      "ining": 1821,
      "æ»": 1822,
      "ives": 1823,
      "uc": 1824,
      "ention": 1825,
      "min": 1826,
      "Ġtake": 1827,
      "...": 1828,
      "æĢģ": 1829,
      "äººçļĦ": 1830,
      "ared": 1831,
      "{align": 1832,
      "Ġvi": 1833,
      "æİ¥": 1834,
      "Ġopt": 1835,
      "åĳĺ": 1836,
      "Ġthree": 1837,
      "Ġinf": 1838,
      "æĿĥ": 1839,
      "èŀį": 1840,
      "eps": 1841,
      "tic": 1842,
      "Ġ(\\": 1843,
      "Ġ|": 1844,
      "èĢģ": 1845,
      "è·¯": 1846,
      "sum": 1847,
      "\\]": 1848,
      "Ġlead": 1849,
      "æŀĦ": 1850,
      "ument": 1851,
      "ather": 1852,
      "åıĪ": 1853,
      "Ġsince": 1854,
      "ç»Ļ": 1855,
      "Ġbook": 1856,
      "æĮĩ": 1857,
      "åĵį": 1858,
      "åıį": 1859,
      "eng": 1860,
      "Ġdep": 1861,
      "iqu": 1862,
      "çłĶç©¶": 1863,
      "Ġagain": 1864,
      "?Ċ": 1865,
      "ead": 1866,
      "man": 1867,
      "Ġfound": 1868,
      "æ¼": 1869,
      "beta": 1870,
      "Ġreal": 1871,
      "æĢ»": 1872,
      "az": 1873,
      "çĸ": 1874,
      "è°ĥ": 1875,
      "éļ¾": 1876,
      "é¢Ĩ": 1877,
      "åĮĹ": 1878,
      "-s": 1879,
      "conom": 1880,
      "ä¸Ģç§į": 1881,
      "hip": 1882,
      "åŀ": 1883,
      "æ¢": 1884,
      "äº¤": 1885,
      "amet": 1886,
      "Ġdesc": 1887,
      "for": 1888,
      "arrow": 1889,
      "io": 1890,
      "ton": 1891,
      "Ġcook": 1892,
      "cd": 1893,
      "æĸ¯": 1894,
      "gorithm": 1895,
      "$-": 1896,
      "plement": 1897,
      "ä¿¡æģ¯": 1898,
      "Ġcent": 1899,
      "è´¨": 1900,
      "Ġgovern": 1901,
      "Ġeffect": 1902,
      "Ġless": 1903,
      "bers": 1904,
      "Ġ.": 1905,
      "Ġstand": 1906,
      "Ġ*": 1907,
      "ript": 1908,
      "Ġhelp": 1909,
      "Ġallow": 1910,
      "äºĶ": 1911,
      "Ġ\\[": 1912,
      "éĩįè¦ģ": 1913,
      "æį®": 1914,
      "åĨĽ": 1915,
      "å¥³": 1916,
      "Ġlocal": 1917,
      "ains": 1918,
      "_n": 1919,
      "Ġser": 1920,
      "ask": 1921,
      "ä½ł": 1922,
      "Ġeas": 1923,
      "å¼ķ": 1924,
      "ross": 1925,
      "leq": 1926,
      "åĥ": 1927,
      "Ġcontin": 1928,
      "èĦ": 1929,
      "yn": 1930,
      "å¾·": 1931,
      "å¦": 1932,
      "-t": 1933,
      "^{-": 1934,
      "Ġbefore": 1935,
      "ĠIs": 1936,
      "èĮ": 1937,
      "ĠX": 1938,
      "pos": 1939,
      "Ġmult": 1940,
      "æ°Ķ": 1941,
      "Ġfollowing": 1942,
      "å¢ĥ": 1943,
      "ave": 1944,
      ",æľī": 1945,
      "vert": 1946,
      "ç»ľ": 1947,
      "ribut": 1948,
      "åħĥ": 1949,
      "ä¸ŃçļĦ": 1950,
      "é¦ĸ": 1951,
      "æĬĢ": 1952,
      "Ġdown": 1953,
      "arket": 1954,
      "éĹ®é¢ĺ": 1955,
      "(x": 1956,
      "è¯į": 1957,
      "ories": 1958,
      "Ġimportant": 1959,
      "This": 1960,
      "æİ¨": 1961,
      "ield": 1962,
      "au": 1963,
      "æ³¨": 1964,
      "ç¯ĩ": 1965,
      "çĻ½": 1966,
      "æĹı": 1967,
      "éĩĩ": 1968,
      "Ġconf": 1969,
      "ision": 1970,
      "åĮº": 1971,
      "bf": 1972,
      "Ġlast": 1973,
      "æĶ¹": 1974,
      "ava": 1975,
      ",å¯": 1976,
      ",ä¸Ģ": 1977,
      "Ð¾": 1978,
      "Ġdem": 1979,
      "å¤´": 1980,
      "Ġgu": 1981,
      "theta": 1982,
      "Ġdirect": 1983,
      "ĠHow": 1984,
      "Ġfew": 1985,
      "ars": 1986,
      "æĬ¥éģĵ": 1987,
      "éĹ¨": 1988,
      "Ġgreat": 1989,
      "gamma": 1990,
      "Ġhere": 1991,
      "ves": 1992,
      "Ġnewsp": 1993,
      "ä¸ĩ": 1994,
      "ç§°": 1995,
      "not": 1996,
      "Ġbr": 1997,
      "è®°èĢħ": 1998,
      "ool": 1999,
      "ished": 2000,
      "Ġstruct": 2001,
      "Ġpers": 2002,
      "Ġperform": 2003,
      "Ġlist": 2004,
      "Ġmight": 2005,
      "Ġgrow": 2006,
      "ional": 2007,
      "ä¹ł": 2008,
      "Ġpercent": 2009,
      "éĴ": 2010,
      "æĻ¯": 2011,
      "Ġjob": 2012,
      "å¿Ĺ": 2013,
      "ner": 2014,
      "Ġimplement": 2015,
      "ved": 2016,
      "å§ĭ": 2017,
      "äºī": 2018,
      "{f": 2019,
      "ected": 2020,
      "Ġ\\\\Ċ": 2021,
      "éĢī": 2022,
      "arly": 2023,
      "Ġtest": 2024,
      "Ġcalled": 2025,
      "Ġfunctions": 2026,
      "onal": 2027,
      "æĪĲä¸º": 2028,
      "Ġ`": 2029,
      "ä»ĸä»¬": 2030,
      "Ġprof": 2031,
      "ious": 2032,
      "å®Į": 2033,
      "æĶ¾": 2034,
      "åĩºçīĪ": 2035,
      "ç½ĳç»ľ": 2036,
      "{{\\": 2037,
      "Ġmust": 2038,
      "åıĸ": 2039,
      "Ġtechn": 2040,
      "resp": 2041,
      "Ġthough": 2042,
      "-d": 2043,
      "ä¼łç»Ł": 2044,
      "å°ıè¯´": 2045,
      "ä»·": 2046,
      "éľĢ": 2047,
      "Ġrepresent": 2048,
      "Ġpres": 2049,
      "Ġprovid": 2050,
      "\",\"": 2051,
      "Ġinterest": 2052,
      "^\\": 2053,
      "Ġlit": 2054,
      "ables": 2055,
      "Ġlarge": 2056,
      "Ġgeneral": 2057,
      "Ġproper": 2058,
      "ä»Ģ": 2059,
      "ĠThey": 2060,
      "ving": 2061,
      "Ġav": 2062,
      "irc": 2063,
      "è¿°": 2064,
      "äºĴ": 2065,
      "ä¿Ŀ": 2066,
      "rodu": 2067,
      "è®²": 2068,
      "Ġgl": 2069,
      "åħī": 2070,
      "+\\": 2071,
      "çĻ¾": 2072,
      "è½¬": 2073,
      "èĬ±": 2074,
      ".åľ¨": 2075,
      "ç¡®": 2076,
      "ç¤º": 2077,
      "æŃĮ": 2078,
      "è¶Ĭ": 2079,
      "æ±Ł": 2080,
      ",å°±": 2081,
      "éĩĳ": 2082,
      "ertain": 2083,
      "Ġpop": 2084,
      "ness": 2085,
      "ulation": 2086,
      "Ġtop": 2087,
      "alk": 2088,
      "Ġiss": 2089,
      "alth": 2090,
      "å£«": 2091,
      "Ġemploy": 2092,
      "tau": 2093,
      "Ġoften": 2094,
      "ç§ĳ": 2095,
      "ek": 2096,
      "ĠAmerican": 2097,
      "Ġorgan": 2098,
      "Ġbetter": 2099,
      "}.": 2100,
      "Ġwar": 2101,
      "Ġwithout": 2102,
      "èĢĥ": 2103,
      "å¼ł": 2104,
      "Ġide": 2105,
      "Ġsour": 2106,
      "eq": 2107,
      "Ġeconom": 2108,
      "Ġopen": 2109,
      ",å¹¶": 2110,
      "åŃĺ": 2111,
      "èĳĹ": 2112,
      "Ġproduct": 2113,
      "ired": 2114,
      "ĠCon": 2115,
      "éĻħ": 2116,
      "itor": 2117,
      "æķħäºĭ": 2118,
      "çº¸": 2119,
      "ĠYork": 2120,
      "ife": 2121,
      "ä¹Ĳ": 2122,
      "é©¬": 2123,
      "ä»Ģä¹Ī": 2124,
      "Ġcal": 2125,
      "å°Ķ": 2126,
      "bar": 2127,
      "åĢ¼": 2128,
      "Â·": 2129,
      "rho": 2130,
      "Ġquest": 2131,
      "æĳ": 2132,
      "stand": 2133,
      "Ġcle": 2134,
      "Ġalgorithm": 2135,
      "Ġparticular": 2136,
      "Ġcover": 2137,
      "çº¿": 2138,
      "ä½Ĩ": 2139,
      "Ġadv": 2140,
      "ç®¡": 2141,
      "æŀģ": 2142,
      "å£°": 2143,
      "ural": 2144,
      "ĠĠĠĠĠĠĠĠĠĠĠĠĠĠĠ": 2145,
      "ense": 2146,
      "}}\\": 2147,
      "ä¸»ä¹ī": 2148,
      "è¯¥": 2149,
      "serv": 2150,
      "ency": 2151,
      "big": 2152,
      "Ġcap": 2153,
      "è¿Ľè¡Į": 2154,
      "els": 2155,
      "wid": 2156,
      "æķ´": 2157,
      "Ġconsider": 2158,
      "Ġsing": 2159,
      "Ġexec": 2160,
      "å¿µ": 2161,
      "view": 2162,
      "Ġgovernment": 2163,
      "Ġparamet": 2164,
      "äººæ°ĳ": 2165,
      "çĭ¬": 2166,
      "Ġgoing": 2167,
      "delta": 2168,
      "olds": 2169,
      "Ġlevel": 2170,
      "Ġlet": 2171,
      "Ġlow": 2172,
      "æºĲ": 2173,
      "Ġwr": 2174,
      "æĸŃ": 2175,
      "åĽ½å®¶": 2176,
      "Ġz": 2177,
      "Ġreturn": 2178,
      "\"\"": 2179,
      "Ġdesign": 2180,
      "Ġ--": 2181,
      "esp": 2182,
      "ording": 2183,
      "Ġresults": 2184,
      "è®¸": 2185,
      "Ġins": 2186,
      "åĬ¿": 2187,
      "ĠQ": 2188,
      "è¿ľ": 2189,
      "Ġreally": 2190,
      "æ¹": 2191,
      "ething": 2192,
      "Ġaround": 2193,
      "åĽłä¸º": 2194,
      "Ġhard": 2195,
      "cap": 2196,
      "Ġdi": 2197,
      "ä»ħ": 2198,
      "Ġlanguages": 2199,
      "Ðµ": 2200,
      "Ġgroup": 2201,
      "ins": 2202,
      "Ġarg": 2203,
      "less": 2204,
      "å¾Ģ": 2205,
      "oint": 2206,
      "éĿ©": 2207,
      "ify": 2208,
      "++": 2209,
      "çª": 2210,
      "ç©º": 2211,
      "Ġanother": 2212,
      "cond": 2213,
      "ħ§": 2214,
      "è¿Ļä¸ª": 2215,
      "}(\\": 2216,
      "Ġbas": 2217,
      "aj": 2218,
      "åĥı": 2219,
      "èĭ±": 2220,
      "========": 2221,
      "Ġve": 2222,
      "ately": 2223,
      "Ġpresent": 2224,
      "åı¥": 2225,
      "åŀĭ": 2226,
      "times": 2227,
      "ĠSo": 2228,
      "Ġchang": 2229,
      "Ġindust": 2230,
      "}$,": 2231,
      "abl": 2232,
      "å¸Ī": 2233,
      "ently": 2234,
      "Ġfre": 2235,
      "Ġpower": 2236,
      "Ġchange": 2237,
      "ç¾¤": 2238,
      "ç»Ħ": 2239,
      "éĢļè¿ĩ": 2240,
      "å½±åĵį": 2241,
      "åĬŁ": 2242,
      "Ġpress": 2243,
      "å¸¦": 2244,
      "ways": 2245,
      "åĦ": 2246,
      "Ġbound": 2247,
      "æ¨": 2248,
      "å¤į": 2249,
      "åĪĽä½ľ": 2250,
      "Ġmeas": 2251,
      "Ġbro": 2252,
      "åŁİ": 2253,
      "Ġcondition": 2254,
      "]{": 2255,
      "æŃ¥": 2256,
      "Ġvalues": 2257,
      "æĸ¹éĿ¢": 2258,
      "ga": 2259,
      "ensure": 2260,
      "Ġpossible": 2261,
      "ital": 2262,
      "etw": 2263,
      "array": 2264,
      "itive": 2265,
      "æłĩ": 2266,
      "Ġexpress": 2267,
      "Ġ$$\\": 2268,
      "å¿ħ": 2269,
      "ĠYou": 2270,
      "An": 2271,
      "åķ": 2272,
      "çºª": 2273,
      "èµ°": 2274,
      "ology": 2275,
      "æľª": 2276,
      "ĠThere": 2277,
      "Ġbeh": 2278,
      "ä½ľä¸º": 2279,
      "æľį": 2280,
      "æľĽ": 2281,
      "Ġ$(": 2282,
      "åĩł": 2283,
      "ially": 2284,
      "Ġspace": 2285,
      "ified": 2286,
      "section": 2287,
      "æĢĿæĥ³": 2288,
      "åĳĬ": 2289,
      "ä¼ĺ": 2290,
      "vious": 2291,
      "æĿİ": 2292,
      "éŁ³": 2293,
      "ann": 2294,
      "Ġhist": 2295,
      "è§Ħ": 2296,
      "Ġ[@": 2297,
      "ç²¾ç¥ŀ": 2298,
      "Ġsomething": 2299,
      "'ve": 2300,
      "Ġworkers": 2301,
      "ets": 2302,
      "Ġcountry": 2303,
      "Ġel": 2304,
      "-c": 2305,
      "æ®µ": 2306,
      "Ġpolit": 2307,
      "ety": 2308,
      "Ġthings": 2309,
      "ĠWh": 2310,
      "Ġprob": 2311,
      "ason": 2312,
      "æķĪ": 2313,
      "epend": 2314,
      "fty": 2315,
      "Ġ<": 2316,
      "urs": 2317,
      "Ġ,": 2318,
      "tilde": 2319,
      "ĠRe": 2320,
      "æĶ¶": 2321,
      "ants": 2322,
      "Ġcontro": 2323,
      "ustom": 2324,
      "Ġpay": 2325,
      "çļĦä¸Ģ": 2326,
      "Ġpass": 2327,
      "Ġapplic": 2328,
      "Ġday": 2329,
      ",æĪĳ": 2330,
      "ä½ľèĢħ": 2331,
      "ĠJava": 2332,
      "å¤ª": 2333,
      "åĪĬ": 2334,
      "Ġcour": 2335,
      "Ġdiscuss": 2336,
      "Ġbest": 2337,
      "ä¸įæĺ¯": 2338,
      "iversity": 2339,
      "éħ": 2340,
      "Ġgra": 2341,
      "partial": 2342,
      ",åĨ": 2343,
      "å®£": 2344,
      "Ġlim": 2345,
      "Ġduring": 2346,
      "Ġmean": 2347,
      "Ġsecond": 2348,
      "Ġpaper": 2349,
      "hor": 2350,
      "Ġvis": 2351,
      "ĠTo": 2352,
      "ilar": 2353,
      "ert": 2354,
      "orem": 2355,
      ")}": 2356,
      "æīĵ": 2357,
      "ĠThat": 2358,
      "è§ī": 2359,
      "Ġcost": 2360,
      "Ġsal": 2361,
      "ç»Ī": 2362,
      "éĿĴ": 2363,
      "åĪ»": 2364,
      "æľĿ": 2365,
      "æĺ¾": 2366,
      "Ġdescrib": 2367,
      "ä¸Ķ": 2368,
      "mbol": 2369,
      "Ġjournalists": 2370,
      "-p": 2371,
      "Ġincluding": 2372,
      "å¨": 2373,
      "amp": 2374,
      "ators": 2375,
      "val": 2376,
      "åĭ": 2377,
      "äº²": 2378,
      "ug": 2379,
      "{R": 2380,
      ",å¯¹": 2381,
      "Ġhim": 2382,
      "For": 2383,
      "Ġcorresp": 2384,
      "Ġdepend": 2385,
      "mm": 2386,
      ",å½": 2387,
      "åħ´": 2388,
      "ior": 2389,
      "åħ¸": 2390,
      "illion": 2391,
      "Ġstandard": 2392,
      "ĠZ": 2393,
      "omega": 2394,
      "igin": 2395,
      "âĢ": 2396,
      "çĬ": 2397,
      "çº§": 2398,
      "ç¬¬ä¸Ģ": 2399,
      "]Ċ": 2400,
      "Ġ:": 2401,
      "Ġtoo": 2402,
      "....": 2403,
      "Ġmarket": 2404,
      "rel": 2405,
      "ä¸įåĲĮ": 2406,
      "ably": 2407,
      "è¾ĥ": 2408,
      "Ġprot": 2409,
      "ç¿": 2410,
      "aces": 2411,
      "Ġalways": 2412,
      "é²": 2413,
      "Ġseem": 2414,
      "{C": 2415,
      "apers": 2416,
      "Ġaff": 2417,
      "Ġobtain": 2418,
      "è¯»èĢħ": 2419,
      "ising": 2420,
      "ina": 2421,
      "èĩªå·±çļĦ": 2422,
      "Ġabove": 2423,
      "plic": 2424,
      "åĨį": 2425,
      "Ġident": 2426,
      "Ġcare": 2427,
      "Ġassum": 2428,
      "çļĦæĺ¯": 2429,
      "ä»ĭ": 2430,
      "æĿ¡": 2431,
      "Ġlarg": 2432,
      "åįķ": 2433,
      "å¥¹": 2434,
      "yle": 2435,
      "Ġproject": 2436,
      "way": 2437,
      "Ġsingle": 2438,
      "und": 2439,
      "èİ·": 2440,
      "Ð°": 2441,
      "Ġlot": 2442,
      "sf": 2443,
      ",æĽ": 2444,
      "Ġinvest": 2445,
      "ands": 2446,
      "ral": 2447,
      "Ġmulti": 2448,
      "ĠEn": 2449,
      "Ġbased": 2450,
      "å¸ĥ": 2451,
      "\\right": 2452,
      "me": 2453,
      "Ġput": 2454,
      "var": 2455,
      "å±Ģ": 2456,
      "Ġhapp": 2457,
      "Ġhig": 2458,
      "çĹ": 2459,
      "åĳ¨": 2460,
      "chool": 2461,
      "Ġdefin": 2462,
      "ÑĤ": 2463,
      "ĠMc": 2464,
      "éĵ": 2465,
      "|\\": 2466,
      "lo": 2467,
      "cdot": 2468,
      "Ġmeans": 2469,
      "_j": 2470,
      "Ġcho": 2471,
      "ke": 2472,
      "Ġsl": 2473,
      "ĠOn": 2474,
      "ctor": 2475,
      "Ġpubl": 2476,
      ",æĬ": 2477,
      "Ġcr": 2478,
      "Ġocc": 2479,
      "åĪĩ": 2480,
      "æļ": 2481,
      "ä»ĸçļĦ": 2482,
      "equ": 2483,
      ",åħ¶": 2484,
      "è§Ĵ": 2485,
      "ä¾¿": 2486,
      "ouse": 2487,
      "quad": 2488,
      "Ġturn": 2489,
      "Ġfar": 2490,
      "è£": 2491,
      "æ±ī": 2492,
      "ference": 2493,
      "çĮ": 2494,
      "äº¬": 2495,
      "Ġstory": 2496,
      "Ġstore": 2497,
      "ackage": 2498,
      "Ġcompany": 2499,
      "å·ŀ": 2500,
      "Ġrese": 2501,
      "Ġleast": 2502,
      "_k": 2503,
      "rix": 2504,
      "med": 2505,
      "{d": 2506,
      "Ġu": 2507,
      "Ġbig": 2508,
      "()": 2509,
      "Ġchar": 2510,
      "Ġcurrent": 2511,
      "Ġredu": 2512,
      "Ġmass": 2513,
      "error": 2514,
      "ering": 2515,
      "è¾ĳ": 2516,
      "Ġrespect": 2517,
      "Delta": 2518,
      "Ġtem": 2519,
      "Ġclos": 2520,
      "åħĭ": 2521,
      "å±Ĥ": 2522,
      "èĹ": 2523,
      "Ġcustom": 2524,
      "Ġmet": 2525,
      "Ġvers": 2526,
      "infty": 2527,
      "tt": 2528,
      "Ġlo": 2529,
      "Ġunderstand": 2530,
      "ditional": 2531,
      "ule": 2532,
      "æĽ¾": 2533,
      "}}$": 2534,
      "where": 2535,
      "inc": 2536,
      "rt": 2537,
      "ither": 2538,
      "ples": 2539,
      "ajor": 2540,
      "åĽ¢": 2541,
      "^*": 2542,
      "Ġhot": 2543,
      "istic": 2544,
      ",ä»İ": 2545,
      "çīĩ": 2546,
      "por": 2547,
      "ĠBy": 2548,
      "åıĤ": 2549,
      "xi": 2550,
      "Ġtry": 2551,
      "Ġfast": 2552,
      "Ġmil": 2553,
      "èĩ´": 2554,
      "Ġlaw": 2555,
      "thing": 2556,
      "è®¤ä¸º": 2557,
      "Ġpot": 2558,
      "oh": 2559,
      "åĬŀ": 2560,
      "è®¡": 2561,
      "è®®": 2562,
      "Ġchild": 2563,
      "-w": 2564,
      "Ġbuild": 2565,
      "Ġstudy": 2566,
      "Ġsat": 2567,
      "Ġphot": 2568,
      "{S": 2569,
      "æ¥": 2570,
      "æ»¡": 2571,
      "æĶ¿æ²»": 2572,
      "Ġpat": 2573,
      "ccess": 2574,
      "Ġplace": 2575,
      "urther": 2576,
      "bs": 2577,
      "nu": 2578,
      "iron": 2579,
      "å¤±": 2580,
      "Ġsimilar": 2581,
      "If": 2582,
      "omen": 2583,
      "Ġleft": 2584,
      "ĠSh": 2585,
      "Ġindustry": 2586,
      "æ¯ı": 2587,
      ",ä¸º": 2588,
      "åı¯èĥ½": 2589,
      "ware": 2590,
      "å®ĺ": 2591,
      "ç»´": 2592,
      "inary": 2593,
      "ffic": 2594,
      "str": 2595,
      "Ġdefined": 2596,
      "å¯Į": 2597,
      "æĹ¶éĹ´": 2598,
      "ĠĠĠĠĠ": 2599,
      "æł¹": 2600,
      "Ġfamily": 2601,
      "Ġmag": 2602,
      "{t": 2603,
      "anc": 2604,
      "æĪ·": 2605,
      "Ġkind": 2606,
      "Ġcome": 2607,
      "Ġnetw": 2608,
      "Ġbecome": 2609,
      "çĶµè§Ĩ": 2610,
      ",å¦Ĥ": 2611,
      "Ġminim": 2612,
      "ç¦»": 2613,
      "ibr": 2614,
      "Ġcar": 2615,
      "åĦ¿": 2616,
      "åºľ": 2617,
      "Ġrad": 2618,
      "As": 2619,
      "Ġnever": 2620,
      "æµİ": 2621,
      "Ġnext": 2622,
      "Ġworking": 2623,
      "èĲ½": 2624,
      "Ġpast": 2625,
      "Ġview": 2626,
      "\\label": 2627,
      "isf": 2628,
      "Ġmonth": 2629,
      "å¤§çļĦ": 2630,
      "æĺ¥": 2631,
      "Ġcomplex": 2632,
      "Ġrestaurants": 2633,
      ",å¼": 2634,
      "èĪĨ": 2635,
      "ocial": 2636,
      "Ġsit": 2637,
      "éĻ¢": 2638,
      "Ġintrodu": 2639,
      "ocus": 2640,
      "Ġcrit": 2641,
      "Ġexecut": 2642,
      "ä¾Ľ": 2643,
      "åĨ³": 2644,
      "æĺĵ": 2645,
      "{}Ċ": 2646,
      "oper": 2647,
      "åĪĹ": 2648,
      "Ġinit": 2649,
      "Ð¸": 2650,
      "oid": 2651,
      ",æĪĳä»¬": 2652,
      "Ġopp": 2653,
      "aps": 2654,
      "æĸ¹å¼ı": 2655,
      "olution": 2656,
      "imens": 2657,
      "ĠSp": 2658,
      "åĪĿ": 2659,
      "Ġsever": 2660,
      "ysis": 2661,
      "Ġmajor": 2662,
      "most": 2663,
      "ribution": 2664,
      "Ġexist": 2665,
      "Ġ/": 2666,
      "Ġhour": 2667,
      "Ġfil": 2668,
      "Ġener": 2669,
      "åĲĮæĹ¶": 2670,
      "ement": 2671,
      "ĠNews": 2672,
      "log": 2673,
      "}$.": 2674,
      "ç®Ģ": 2675,
      "å½ķ": 2676,
      "pre": 2677,
      "ĠAd": 2678,
      "æŃ»": 2679,
      "çŃĸ": 2680,
      "Ġdiff": 2681,
      "orn": 2682,
      "åĪ°äºĨ": 2683,
      "Ġconc": 2684,
      "ah": 2685,
      "ĠDe": 2686,
      "space": 2687,
      "è®¿": 2688,
      "Ġpost": 2689,
      "Ġden": 2690,
      "Ġplan": 2691,
      "Ġapproach": 2692,
      "Ġlittle": 2693,
      "Ġgraph": 2694,
      "oss": 2695,
      "Ġoptim": 2696,
      "Ġcorrespond": 2697,
      "Gamma": 2698,
      "Ġconsum": 2699,
      "ients": 2700,
      "åį°": 2701,
      "Ġbo": 2702,
      "æŀĹ": 2703,
      "ength": 2704,
      "å®¢": 2705,
      "ope": 2706,
      "face": 2707,
      "Ġterms": 2708,
      "ocument": 2709,
      "ison": 2710,
      "ank": 2711,
      "Ġfield": 2712,
      "Ġwithin": 2713,
      "è¿Ļæł·": 2714,
      "sq": 2715,
      "ä¸ĬçļĦ": 2716,
      "St": 2717,
      "Ġobserv": 2718,
      "Ġsimple": 2719,
      "Ġagainst": 2720,
      ")$,": 2721,
      "ĠHowever": 2722,
      "Ġcertain": 2723,
      "Ġtypes": 2724,
      "Ġaccess": 2725,
      "ĠAf": 2726,
      "Ġestim": 2727,
      "Ġmen": 2728,
      ").Ċ": 2729,
      "Ġartic": 2730,
      "ä¾ĭ": 2731,
      "``": 2732,
      "Ġdoesn": 2733,
      "å®ĭ": 2734,
      "çİ¯": 2735,
      "etail": 2736,
      "éľĢè¦ģ": 2737,
      "Ġwrite": 2738,
      "ç´ł": 2739,
      "ä¸»è¦ģ": 2740,
      "åħ«": 2741,
      "åĶĲ": 2742,
      "åı£": 2743,
      "ived": 2744,
      "Ġseveral": 2745,
      "äºĳ": 2746,
      "Ġstrong": 2747,
      "ä½ľå®¶": 2748,
      "abor": 2749,
      "Ġsum": 2750,
      "åĿļ": 2751,
      "Ġweek": 2752,
      "¿½": 2753,
      "Ġdeterm": 2754,
      "Ġfree": 2755,
      "{eq": 2756,
      "ling": 2757,
      "Ġmaking": 2758,
      "Ġlik": 2759,
      "ensuremath": 2760,
      "Ġhome": 2761,
      "{A": 2762,
      "ules": 2763,
      "è¶³": 2764,
      "))": 2765,
      "Ġmethods": 2766,
      "Ġdel": 2767,
      "Ġstructure": 2768,
      "Ġknown": 2769,
      ",è¿ĺ": 2770,
      "åį´": 2771,
      "åį³": 2772,
      "ä»·åĢ¼": 2773,
      "åī§": 2774,
      "tion": 2775,
      "ivid": 2776,
      "Ġinc": 2777,
      "Ġorigin": 2778,
      "Ġsolution": 2779,
      "åħŃ": 2780,
      "åįĥ": 2781,
      "olum": 2782,
      "Ġmeasure": 2783,
      "æ¨¡": 2784,
      "Ġcompil": 2785,
      "é¸": 2786,
      "åĩĨ": 2787,
      "çħ§": 2788,
      "åĢĻ": 2789,
      "Ġcomb": 2790,
      "Ġtimes": 2791,
      "çŁ³": 2792,
      "Ġprovide": 2793,
      "\\,": 2794,
      "Ġavail": 2795,
      "Ġspecific": 2796,
      "åħħ": 2797,
      "ĠTimes": 2798,
      "Ġnear": 2799,
      "åķĨ": 2800,
      "ried": 2801,
      "Ġpract": 2802,
      "Ġbelie": 2803,
      "èĮĥ": 2804,
      "äººä»¬": 2805,
      "Ġlife": 2806,
      "atures": 2807,
      "ç»Ĩ": 2808,
      "èĲ¥": 2809,
      "ival": 2810,
      "éŃ": 2811,
      "{P": 2812,
      "ynam": 2813,
      "ega": 2814,
      "Ġbre": 2815,
      "lev": 2816,
      "-l": 2817,
      "viron": 2818,
      "ï¿½": 2819,
      "(t": 2820,
      "å¤«": 2821,
      "ĠSy": 2822,
      "èĭı": 2823,
      ".e": 2824,
      "ians": 2825,
      "æĬĢæľ¯": 2826,
      "å¸Ŀ": 2827,
      "Ġsize": 2828,
      "ä¸¾": 2829,
      "Ġfour": 2830,
      ",æ¯": 2831,
      "ç¾İåĽ½": 2832,
      "Ġlog": 2833,
      "è¿ĻäºĽ": 2834,
      "ĠThen": 2835,
      "ised": 2836,
      "Ġhead": 2837,
      "åĲ¬": 2838,
      "ĠWhen": 2839,
      "oll": 2840,
      "ready": 2841,
      "Ġsuccess": 2842,
      "ream": 2843,
      "ç»Ń": 2844,
      "éļı": 2845,
      "Ġmove": 2846,
      "ecess": 2847,
      "åħ·æľī": 2848,
      "å¤Ł": 2849,
      "Ġable": 2850,
      "Ġspe": 2851,
      "Ġlearn": 2852,
      "çº¢": 2853,
      "atch": 2854,
      "è¾¹": 2855,
      "uman": 2856,
      "\\[": 2857,
      "Ġfocus": 2858,
      "Ġpred": 2859,
      "orph": 2860,
      "Om": 2861,
      "be": 2862,
      "obal": 2863,
      "Ġcommon": 2864,
      "éĺħ": 2865,
      "thon": 2866,
      "èŀįåĲĪ": 2867,
      "epsilon": 2868,
      "Ġfull": 2869,
      "atic": 2870,
      "ĠLet": 2871,
      "ä¿®": 2872,
      "ration": 2873,
      "Ġimpro": 2874,
      "çģµ": 2875,
      "def": 2876,
      "width": 2877,
      "Ġquestion": 2878,
      "Ġenergy": 2879,
      "Ġhigher": 2880,
      "Ġhealth": 2881,
      ")=": 2882,
      "'ll": 2883,
      "_t": 2884,
      "Ã©": 2885,
      ",å¾": 2886,
      "Ġwhy": 2887,
      "Ġask": 2888,
      "Ġsequ": 2889,
      "Ġconn": 2890,
      "ĠAt": 2891,
      "éªĮ": 2892,
      "åŁŁ": 2893,
      "}_{\\": 2894,
      "rangle": 2895,
      "æĿĤ": 2896,
      "Ġeditor": 2897,
      "Ġdone": 2898,
      "Ġscal": 2899,
      "Ġben": 2900,
      "Ġcharact": 2901,
      "ĠUniversity": 2902,
      "Ġdom": 2903,
      "èĻ½": 2904,
      "Ġaccording": 2905,
      "ination": 2906,
      "Ġwhether": 2907,
      "çľģ": 2908,
      "Ġmakes": 2909,
      "äººçī©": 2910,
      "ĠCl": 2911,
      "è´£": 2912,
      "ery": 2913,
      "ĠEx": 2914,
      "å®Ĺ": 2915,
      "çľ¼": 2916,
      "å¿«": 2917,
      "Ġcontain": 2918,
      "Omega": 2919,
      "land": 2920,
      "è¿ŀ": 2921,
      "ç½Ĺ": 2922,
      "Ġassoci": 2923,
      "çº¦": 2924,
      "verage": 2925,
      "Ġreason": 2926,
      "ute": 2927,
      "Ġenough": 2928,
      "Ġname": 2929,
      "Ġalready": 2930,
      "aim": 2931,
      "ç»ıæµİ": 2932,
      "Ġspecial": 2933,
      "æ¶Ī": 2934,
      "âĢ¢": 2935,
      "åı·": 2936,
      "Ġside": 2937,
      "Ġnam": 2938,
      "èĩªçĦ¶": 2939,
      "{s": 2940,
      "è¡¨çİ°": 2941,
      "Ġ$$": 2942,
      "Ġsource": 2943,
      "'m": 2944,
      "wh": 2945,
      ".ä»ĸ": 2946,
      "psi": 2947,
      "è¯ģ": 2948,
      "{p": 2949,
      "æħ": 2950,
      ",æķ": 2951,
      "å¾ĭ": 2952,
      "ĠShe": 2953,
      "ivity": 2954,
      "çªģ": 2955,
      "Ġacross": 2956,
      "Ġcourse": 2957,
      "Ġpoints": 2958,
      "by": 2959,
      "ĠĊĊ": 2960,
      "Ġcontrol": 2961,
      "çĥŃ": 2962,
      "Ġprograms": 2963,
      "Ġproblems": 2964,
      "Ġgive": 2965,
      "éĺ³": 2966,
      "ush": 2967,
      "\\\\Ċ": 2968,
      "Ġsystems": 2969,
      "ique": 2970,
      "æĹ©": 2971,
      "Ġet": 2972,
      "Ġcalc": 2973,
      "ĠComm": 2974,
      "ched": 2975,
      "Ġdefinition": 2976,
      "Ġavailable": 2977,
      "Ġsignific": 2978,
      "ences": 2979,
      "å¾ģ": 2980,
      "Ġanalysis": 2981,
      "çİ°ä»£": 2982,
      "}[": 2983,
      "æıı": 2984,
      "å¹³åı°": 2985,
      "èĹı": 2986,
      "çĽĬ": 2987,
      "-m": 2988,
      "æĿ¥çļĦ": 2989,
      "Ġfore": 2990,
      ",éĤ": 2991,
      "usep": 2992,
      "usepackage": 2993,
      "raw": 2994,
      "Ġcolle": 2995,
      "çı": 2996,
      "å°½": 2997,
      "Ġdetail": 2998,
      "Ġoffic": 2999,
      "ission": 3000,
      "ĠAr": 3001,
      "èģĮ": 3002,
      "è¯ĳ": 3003,
      "ott": 3004,
      "arent": 3005,
      "åħ³ç³»": 3006,
      "Ġkeep": 3007,
      "Ġalong": 3008,
      "Ġcommunity": 3009,
      "askell": 3010,
      "ä¾Ŀ": 3011,
      "ended": 3012,
      "\\left": 3013,
      "æĻº": 3014,
      "ependent": 3015,
      "Ð½": 3016,
      "æ¸¸": 3017,
      "Ġactually": 3018,
      "outh": 3019,
      "èħ": 3020,
      "æ¼Ķ": 3021,
      "å¡": 3022,
      ")$.": 3023,
      "æī¹": 3024,
      "ties": 3025,
      "ole": 3026,
      "ĠPh": 3027,
      "orth": 3028,
      "åĬ©": 3029,
      "}$$": 3030,
      "Ġsocial": 3031,
      "ees": 3032,
      "åįļ": 3033,
      "ĠBe": 3034,
      "å¼Ģå§ĭ": 3035,
      "ä¼¼": 3036,
      "idd": 3037,
      "ä¸ĢäºĽ": 3038,
      "ograph": 3039,
      "Ġjournalism": 3040,
      "æī¿": 3041,
      "çķĻ": 3042,
      "Ġthing": 3043,
      "{aligned": 3044,
      "Ġshows": 3045,
      "èĪĨè®º": 3046,
      "Ġold": 3047,
      "å·²ç»ı": 3048,
      "Ġbroad": 3049,
      "åı¸": 3050,
      "name": 3051,
      "Ġkey": 3052,
      "}=": 3053,
      "ged": 3054,
      "æ´¾": 3055,
      "Ġamong": 3056,
      "Ġmov": 3057,
      "å¤ĩ": 3058,
      "psilon": 3059,
      "sqrt": 3060,
      "åł": 3061,
      "Ġsk": 3062,
      "ldots": 3063,
      "Ġauthor": 3064,
      "Ġcity": 3065,
      "äºĭä»¶": 3066,
      "fra": 3067,
      "ç¨¿": 3068,
      "Ġbeg": 3069,
      "],": 3070,
      "Ġlater": 3071,
      "Ġschool": 3072,
      "asing": 3073,
      "Ġenviron": 3074,
      "ĠOb": 3075,
      "å¥ĸ": 3076,
      "ĠAss": 3077,
      "è¿Ļä¸Ģ": 3078,
      "Ġclasses": 3079,
      "ä¹¡": 3080,
      "uture": 3081,
      "ĠSe": 3082,
      "æĽ²": 3083,
      "åĸĦ": 3084,
      "though": 3085,
      "ython": 3086,
      "ĠWhat": 3087,
      "lu": 3088,
      "oney": 3089,
      "uation": 3090,
      "ruction": 3091,
      "rack": 3092,
      "ä¹Ŀ": 3093,
      "éĻ¤": 3094,
      "ç¼ĸè¾ĳ": 3095,
      "åĨµ": 3096,
      "å¢ŀ": 3097,
      ",å¥": 3098,
      "çĶļ": 3099,
      "æ²³": 3100,
      "Ġ}": 3101,
      "oups": 3102,
      "Ġinvol": 3103,
      "è°Ī": 3104,
      "orld": 3105,
      "è¿½": 3106,
      "ype": 3107,
      "{x": 3108,
      "ä¸ĥ": 3109,
      "Ġsatisf": 3110,
      "Ġfollows": 3111,
      ",æĽ´": 3112,
      "Ġquant": 3113,
      "rightarrow": 3114,
      "geq": 3115,
      "åıĭ": 3116,
      "æĹ¶åĢĻ": 3117,
      "ero": 3118,
      "Ġrather": 3119,
      "ç»Ŀ": 3120,
      "ĠAmerica": 3121,
      "Ġdecl": 3122,
      "æĺ¯ä¸Ģ": 3123,
      "ä¸¥": 3124,
      "Ġcases": 3125,
      "é¡»": 3126,
      "let": 3127,
      "eral": 3128,
      "åĮħ": 3129,
      "èĤ²": 3130,
      "iving": 3131,
      "rect": 3132,
      "Ġpolitical": 3133,
      "Ġconstruct": 3134,
      "Ġlat": 3135,
      "å¥ĩ": 3136,
      "ĠInd": 3137,
      "æĸĩç«ł": 3138,
      "Ġleg": 3139,
      "book": 3140,
      "çĨ": 3141,
      ",æŃ": 3142,
      "ply": 3143,
      "å¤§åŃ¦": 3144,
      "Ġstories": 3145,
      "Ġvariables": 3146,
      "ĠUnited": 3147,
      "aster": 3148,
      "Ġnorm": 3149,
      "side": 3150,
      "é¾": 3151,
      "ç¢": 3152,
      "å®£ä¼ł": 3153,
      "cast": 3154,
      "ĠHaskell": 3155,
      "æľįåĬ¡": 3156,
      "pect": 3157,
      "æŃ¦": 3158,
      "illed": 3159,
      "ury": 3160,
      "ublic": 3161,
      "èĥĮ": 3162,
      "Ġsyn": 3163,
      "ends": 3164,
      "bra": 3165,
      "Ñģ": 3166,
      "port": 3167,
      "vare": 3168,
      "itary": 3169,
      "ä»¤": 3170,
      "tal": 3171,
      "Ġcult": 3172,
      "é¢ĳ": 3173,
      "aff": 3174,
      "ody": 3175,
      "opy": 3176,
      "Ġposition": 3177,
      "{E": 3178,
      "Ġtalk": 3179,
      "Ġtheory": 3180,
      "omet": 3181,
      "Ph": 3182,
      "ij": 3183,
      "alf": 3184,
      "sw": 3185,
      "But": 3186,
      "æĢ§çļĦ": 3187,
      "ĠIntern": 3188,
      "ibility": 3189,
      "Ġnewspaper": 3190,
      "çİ°åľ¨": 3191,
      "Ġcreate": 3192,
      "varepsilon": 3193,
      "ials": 3194,
      "Ġmillion": 3195,
      "{figure": 3196,
      "$.ĊĊ": 3197,
      "izing": 3198,
      "empt": 3199,
      "Ġmemory": 3200,
      "ances": 3201,
      "Ð¾Ð": 3202,
      "åĽłæŃ¤": 3203,
      ").ĊĊ": 3204,
      "è¯Ńè¨Ģ": 3205,
      "ortun": 3206,
      "There": 3207,
      "éĥ¨åĪĨ": 3208,
      "èĭ¦": 3209,
      "æ½": 3210,
      "^{(": 3211,
      "æĿĳ": 3212,
      "Ġhistory": 3213,
      "Ġeither": 3214,
      "acks": 3215,
      "Ġwon": 3216,
      "æĬ¥çº¸": 3217,
      "ä¸įèĥ½": 3218,
      "utions": 3219,
      "æ°ĳæĹı": 3220,
      "ĠThese": 3221,
      "rael": 3222,
      "Ġservice": 3223,
      "äºļ": 3224,
      "åĪĺ": 3225,
      "Ġrecip": 3226,
      "çķ¥": 3227,
      "é¡¹": 3228,
      "ÑĢ": 3229,
      "æĸĻ": 3230,
      "Ġver": 3231,
      "sim": 3232,
      "Ġsam": 3233,
      "xim": 3234,
      "{M": 3235,
      "Ġalmost": 3236,
      "varphi": 3237,
      "Ġvariable": 3238,
      "è¶ħ": 3239,
      "\\sub": 3240,
      "çĪ¶": 3241,
      "Ġpur": 3242,
      "Ġsignificant": 3243,
      "Ġelect": 3244,
      "æŁ¥": 3245,
      "lim": 3246,
      "ç«Ļ": 3247,
      "Ġobjects": 3248,
      "ç§¯": 3249,
      "Ġshort": 3250,
      "Ġtoday": 3251,
      "é»Ħ": 3252,
      "åĸľ": 3253,
      "Ġsection": 3254,
      "Ġtrue": 3255,
      "Ġworks": 3256,
      "Ġsem": 3257,
      "Ġresearch": 3258,
      "è¿ĩç¨ĭ": 3259,
      "Ġchall": 3260,
      "é¥": 3261,
      "è¿Ļç§į": 3262,
      "Ġwritten": 3263,
      "éĥ½æĺ¯": 3264,
      "è½½": 3265,
      "Ġpotential": 3266,
      "eqref": 3267,
      "æĹ¶æľŁ": 3268,
      "Ġtell": 3269,
      "ä»£è¡¨": 3270,
      "æĻ®": 3271,
      "éĻĪ": 3272,
      "Ġtoget": 3273,
      "Ġtogether": 3274,
      "\"(": 3275,
      "ä¹İ": 3276,
      "æĭī": 3277,
      "langle": 3278,
      "Ġenc": 3279,
      "çļĦæĸ°éĹ»": 3280,
      "ç´¢": 3281,
      "Ġinput": 3282,
      "ymbol": 3283,
      "å½¢å¼ı": 3284,
      "Ġinstance": 3285,
      "overline": 3286,
      "å¯¹äºİ": 3287,
      "Ġmodels": 3288,
      "æĶ¯": 3289,
      "item": 3290,
      "Ġdoing": 3291,
      "Ġdeg": 3292,
      "Ġcompon": 3293,
      "ĠSc": 3294,
      "Ġtool": 3295,
      "oot": 3296,
      "Ġnecess": 3297,
      "ification": 3298,
      "åįĩ": 3299,
      "ĠOne": 3300,
      "Ġevent": 3301,
      "åĳ³": 3302,
      "æ¡Ī": 3303,
      ",éĤ£": 3304,
      "æĹ¢": 3305,
      "ä¸°": 3306,
      "å±ħ": 3307,
      "iod": 3308,
      "Ġmach": 3309,
      "ĠEu": 3310,
      "Ġshown": 3311,
      "çŁŃ": 3312,
      "By": 3313,
      "æŀĲ": 3314,
      "Ġdefine": 3315,
      "Ġder": 3316,
      "Ġsuper": 3317,
      "ĠMore": 3318,
      "ĠCent": 3319,
      "æĭ¬": 3320,
      "Ġchef": 3321,
      "ggest": 3322,
      "Ġrelations": 3323,
      "pm": 3324,
      "af": 3325,
      "Ġcontinu": 3326,
      "ĠJournal": 3327,
      "cur": 3328,
      "Ġstates": 3329,
      "icy": 3330,
      ")ĊĊ": 3331,
      "}}(": 3332,
      "Ġexact": 3333,
      "ges": 3334,
      "è¯Ĺäºº": 3335,
      "è½»": 3336,
      "Ġuntil": 3337,
      "å»ºè®¾": 3338,
      "ption": 3339,
      "Ġelements": 3340,
      "ç»ĺ": 3341,
      "ĠLe": 3342,
      "åįı": 3343,
      "Ġplay": 3344,
      ",åĬ": 3345,
      "icult": 3346,
      "Ġeffort": 3347,
      ",å¤§": 3348,
      "Ġitself": 3349,
      "Ġnumbers": 3350,
      ",è®©": 3351,
      "çł´": 3352,
      "Ġbar": 3353,
      "Ġidea": 3354,
      "br": 3355,
      "Ġeng": 3356,
      "hemat": 3357,
      "åĽ½éĻħ": 3358,
      "Ġmanag": 3359,
      "éĺŁ": 3360,
      "çİ°å®ŀ": 3361,
      "ER": 3362,
      "åħ»": 3363,
      "-st": 3364,
      "Ġdays": 3365,
      ".ä½Ĩ": 3366,
      "Ġperformance": 3367,
      "aken": 3368,
      "Ġconcept": 3369,
      "å¾®": 3370,
      "åĪĴ": 3371,
      "ane": 3372,
      "Ġintern": 3373,
      "å¦Ĥä½ķ": 3374,
      "ington": 3375,
      "åľŁ": 3376,
      "Ġhaving": 3377,
      "Ġothers": 3378,
      "åĪĽæĸ°": 3379,
      "andom": 3380,
      "ops": 3381,
      ",éĥ½": 3382,
      "Ġsuggest": 3383,
      "Ġcharacter": 3384,
      "anies": 3385,
      "{c": 3386,
      "äºĨä¸Ģ": 3387,
      "Ġsense": 3388,
      "rem": 3389,
      "arl": 3390,
      "Ġenvironment": 3391,
      "Ġprevious": 3392,
      "Ġpropos": 3393,
      "Ġlower": 3394,
      "To": 3395,
      "Ġprom": 3396,
      "å¤®": 3397,
      "He": 3398,
      "ĠRes": 3399,
      "onald": 3400,
      "Ġprofess": 3401,
      "mbox": 3402,
      "Ġproof": 3403,
      "bolds": 3404,
      "Ġfram": 3405,
      "Ġnetwork": 3406,
      "-in": 3407,
      "Ġonce": 3408,
      "''": 3409,
      "Ġprint": 3410,
      "Ġappear": 3411,
      "sel": 3412,
      "Ġann": 3413,
      "Ġgot": 3414,
      "chen": 3415,
      "}^{\\": 3416,
      "iting": 3417,
      "Ġnewspapers": 3418,
      "æĿĲ": 3419,
      "åĽ´": 3420,
      "{F": 3421,
      "Ġaccount": 3422,
      ",æīĢ": 3423,
      "Ġconstant": 3424,
      "osition": 3425,
      "å¹²": 3426,
      "Ġsimply": 3427,
      "ored": 3428,
      "Ġlikely": 3429,
      "Ġç¬¬": 3430,
      ",å®ĥ": 3431,
      "æ´»åĬ¨": 3432,
      "aries": 3433,
      "ĠOr": 3434,
      "ending": 3435,
      "ered": 3436,
      "enn": 3437,
      "ym": 3438,
      "Ġsoft": 3439,
      "ember": 3440,
      "æıĲä¾Ľ": 3441,
      "-based": 3442,
      ",åıª": 3443,
      ");": 3444,
      "boldsymbol": 3445,
      "Ġremain": 3446,
      "Ġsepar": 3447,
      "Ġfeatures": 3448,
      "iment": 3449,
      "å§Ķ": 3450,
      "What": 3451,
      "Ġfuture": 3452,
      "ese": 3453,
      "Ġpoly": 3454,
      "Ġcheck": 3455,
      "æĢĢ": 3456,
      "ring": 3457,
      "ift": 3458,
      "æĹ¥æĬ¥": 3459,
      "èĴ": 3460,
      "ĠWith": 3461,
      "Ġdistribution": 3462,
      "ĠIsrael": 3463,
      "Ġseen": 3464,
      "Ġdevelopment": 3465,
      "åºķ": 3466,
      "co": 3467,
      "ä¼ģ": 3468,
      "Ġrece": 3469,
      "Ġ>": 3470,
      "çĶŁçļĦ": 3471,
      "Ġnational": 3472,
      ",ä½¿": 3473,
      "æĶ¿åºľ": 3474,
      "ç»ĩ": 3475,
      ",åĩ": 3476,
      "Ġcut": 3477,
      "Ġ\\,": 3478,
      "ateg": 3479,
      "åį·": 3480,
      "æĦıä¹ī": 3481,
      "Ġintegr": 3482,
      "æ£": 3483,
      "{B": 3484,
      "ĠStates": 3485,
      "Ġcalcul": 3486,
      "Ġrequire": 3487,
      "ç«¯": 3488,
      "å¢¨": 3489,
      "Ġarea": 3490,
      "ĠAll": 3491,
      "Ġbit": 3492,
      "Ġbenef": 3493,
      "vent": 3494,
      "Ġexcept": 3495,
      "Ġdifficult": 3496,
      "å²ģ": 3497,
      "Ġbehav": 3498,
      "IN": 3499,
      "Ġexperience": 3500,
      "sequ": 3501,
      "Ġcirc": 3502,
      "å¹¿æĴŃ": 3503,
      "ium": 3504,
      "ĠRep": 3505,
      ".g": 3506,
      "Ġcannot": 3507,
      "Ġcame": 3508,
      "Ġdynam": 3509,
      "ixed": 3510,
      "__": 3511,
      "Ġcompar": 3512,
      "Ġfail": 3513,
      "Ġinclude": 3514,
      "Ġmom": 3515,
      "Ġglobal": 3516,
      "ä¹ĭéĹ´": 3517,
      "Ġhowever": 3518,
      "ters": 3519,
      "Ġdue": 3520,
      "ides": 3521,
      "Ġpath": 3522,
      "Ġrecent": 3523,
      "Ġeasy": 3524,
      "Ġesp": 3525,
      "Ġversion": 3526,
      "Ġhuman": 3527,
      "ä¸Ńå¿ĥ": 3528,
      "operator": 3529,
      "Ġmembers": 3530,
      "Let": 3531,
      "frak": 3532,
      "Ġinvestig": 3533,
      "verse": 3534,
      "gl": 3535,
      "cript": 3536,
      "ä¸ĸçºª": 3537,
      "mit": 3538,
      "Ġstep": 3539,
      "å¼Ĥ": 3540,
      "osed": 3541,
      "éĻĲ": 3542,
      "Ġhappen": 3543,
      "Ġpublished": 3544,
      "ranch": 3545,
      "ä½Ļ": 3546,
      "rope": 3547,
      "Ġemb": 3548,
      "Ġpopular": 3549,
      "è®¯": 3550,
      "Ġmoney": 3551,
      "æĲ": 3552,
      "èĪ¬": 3553,
      "Ġaway": 3554,
      "self": 3555,
      "Ġeval": 3556,
      "çĲĨè®º": 3557,
      "æĸĹ": 3558,
      "\"ä¸Ń": 3559,
      "å®ŀçİ°": 3560,
      "èĥ½å¤Ł": 3561,
      "èĩªçĶ±": 3562,
      "Ġrate": 3563,
      "ront": 3564,
      "ohn": 3565,
      "Ġcompanies": 3566,
      "},\\": 3567,
      "arning": 3568,
      "alle": 3569,
      "rench": 3570,
      "ä¹Łæĺ¯": 3571,
      "ipp": 3572,
      "ene": 3573,
      "oung": 3574,
      "Ġelement": 3575,
      "Ġclaim": 3576,
      "Ġgroups": 3577,
      "èįī": 3578,
      "Ġinstead": 3579,
      "Ġfurther": 3580,
      "ches": 3581,
      "Ġregular": 3582,
      "åĨĻä½ľ": 3583,
      "æĸĩèīº": 3584,
      "Ġissues": 3585,
      "\"çŃī": 3586,
      "ST": 3587,
      "Ġarticle": 3588,
      "è¦ģæ±Ĥ": 3589,
      "Ġcooking": 3590,
      "{T": 3591,
      "raq": 3592,
      "Ġways": 3593,
      "å½©": 3594,
      "ffee": 3595,
      "æķ£": 3596,
      "Ġearly": 3597,
      "rences": 3598,
      "æĸĩåŃĹ": 3599,
      "son": 3600,
      "Ġspect": 3601,
      "ird": 3602,
      ",åıĪ": 3603,
      "Ġtri": 3604,
      "è°ĵ": 3605,
      "Ġwomen": 3606,
      "éĿŀå¸¸": 3607,
      "rict": 3608,
      "å¯Ĩ": 3609,
      "åĩ»": 3610,
      "åı¦": 3611,
      "å¦Ĥæŀľ": 3612,
      "osp": 3613,
      "Ġchildren": 3614,
      "wit": 3615,
      "Ġregion": 3616,
      "chi": 3617,
      "{L": 3618,
      "ler": 3619,
      "Ġeduc": 3620,
      "Ġwater": 3621,
      "odes": 3622,
      "Ġhom": 3623,
      "éĺ¶": 3624,
      "stit": 3625,
      "æĪĲäºĨ": 3626,
      "Ġindic": 3627,
      "umber": 3628,
      "selves": 3629,
      "].": 3630,
      "avor": 3631,
      "rad": 3632,
      "action": 3633,
      "reg": 3634,
      "mathfrak": 3635,
      "agement": 3636,
      "})$": 3637,
      "Ġparameters": 3638,
      "è®¸å¤ļ": 3639,
      "operatorname": 3640,
      "æĸ°çļĦ": 3641,
      "äºĴèģĶ": 3642,
      "è´¹": 3643,
      "Ġcontent": 3644,
      "åħµ": 3645,
      "é¦Ļ": 3646,
      "Ġcamp": 3647,
      "Ġdeal": 3648,
      "Ġindivid": 3649,
      "ä»¥åıĬ": 3650,
      "Ġperson": 3651,
      "éĺħè¯»": 3652,
      "Ġoperations": 3653,
      "ä¹ĭåĲİ": 3654,
      "éĩĬ": 3655,
      "edom": 3656,
      "æİ¢": 3657,
      "class": 3658,
      "Ġdeb": 3659,
      "\".Ċ": 3660,
      "Ġansw": 3661,
      "Ġcomes": 3662,
      "Ġinitial": 3663,
      ",ä¸ŃåĽ½": 3664,
      "Ġneg": 3665,
      "ĠUS": 3666,
      "clus": 3667,
      ",åŃ": 3668,
      ")^": 3669,
      "ecially": 3670,
      "è¯¸": 3671,
      "Ġgrowth": 3672,
      "-h": 3673,
      "Ġperiod": 3674,
      "play": 3675,
      "Ġlibr": 3676,
      "å±ŀ": 3677,
      "raction": 3678,
      "è¶£": 3679,
      "Ġerror": 3680,
      "æĬ¤": 3681,
      "PR": 3682,
      "ä»½": 3683,
      "Ġtraining": 3684,
      "ĠEurope": 3685,
      "idered": 3686,
      "{H": 3687,
      "Ġdidn": 3688,
      "Donald": 3689,
      "ä¹¦æ³ķ": 3690,
      "BC": 3691,
      "å®Ī": 3692,
      "Ġnat": 3693,
      "see": 3694,
      "Ġonline": 3695,
      "Ġchanges": 3696,
      "æĪı": 3697,
      "å¾Īå¤ļ": 3698,
      "çĶŁåĳ½": 3699,
      "èĥ½åĬĽ": 3700,
      "åŃĺåľ¨": 3701,
      "Ġsort": 3702,
      "Ġago": 3703,
      "cing": 3704,
      "éĢĤ": 3705,
      "*}Ċ": 3706,
      "åĩºäºĨ": 3707,
      "å®¡": 3708,
      "Ġclear": 3709,
      "ama": 3710,
      "Ġmax": 3711,
      "Ġinde": 3712,
      "å¸Į": 3713,
      "è¡¨è¾¾": 3714,
      "textbf": 3715,
      "une": 3716,
      "åºı": 3717,
      "{D": 3718,
      "bor": 3719,
      "æ¢¦": 3720,
      "ensity": 3721,
      "itud": 3722,
      "Ġeffic": 3723,
      "{eqn": 3724,
      "Ġla": 3725,
      "Ġcou": 3726,
      "Ġaverage": 3727,
      "Ġconstra": 3728,
      "Ġmatrix": 3729,
      "idence": 3730,
      ",æİ": 3731,
      "ä½ı": 3732,
      "ç»§": 3733,
      "racy": 3734,
      "æĵ": 3735,
      "Ġjobs": 3736,
      "Ġ@": 3737,
      "Ġtotal": 3738,
      "Ġfac": 3739,
      "èī¯": 3740,
      ",æ²": 3741,
      "åĩºçİ°": 3742,
      "etic": 3743,
      "Ġcompet": 3744,
      "æī¾": 3745,
      "åİ¿": 3746,
      "ĠTe": 3747,
      "å¹´çļĦ": 3748,
      "å½Ĵ": 3749,
      "bm": 3750,
      "Ġdifference": 3751,
      "wide": 3752,
      "¿Ģ": 3753,
      "Ġaddition": 3754,
      "Ġwhose": 3755,
      "inter": 3756,
      "çĶļèĩ³": 3757,
      "Ġbecom": 3758,
      "æ¬¢": 3759,
      "ç½®": 3760,
      "ilities": 3761,
      "ä¿Ĺ": 3762,
      "åĨľ": 3763,
      "ĠIraq": 3764,
      "æŁĲ": 3765,
      "Ġfive": 3766,
      "Ġhalf": 3767,
      "ills": 3768,
      "duct": 3769,
      "{N": 3770,
      "Ġconditions": 3771,
      "Ġmilitary": 3772,
      "æ¯į": 3773,
      "cm": 3774,
      "itchen": 3775,
      "ams": 3776,
      "Ġtook": 3777,
      "Ġissue": 3778,
      "ç§ĭ": 3779,
      "è´µ": 3780,
      "Ġing": 3781,
      "Ġeconomic": 3782,
      "éĢŁ": 3783,
      "resh": 3784,
      "åħ°": 3785,
      "ields": 3786,
      "ĠWar": 3787,
      "å½ĵæĹ¶": 3788,
      "Ġfeel": 3789,
      "ä¸ĵä¸ļ": 3790,
      "Wh": 3791,
      ",æľĢ": 3792,
      "uff": 3793,
      "uis": 3794,
      "Ġmess": 3795,
      "ĠNational": 3796,
      "å¯Ł": 3797,
      "ĠWorld": 3798,
      "èĻļ": 3799,
      "ĠChina": 3800,
      "çĲĥ": 3801,
      "ĠĠĠĠĠĠĠĠĠĠĠ": 3802,
      ",å¸": 3803,
      "Ġvarious": 3804,
      "åĻ": 3805,
      "Ġrole": 3806,
      "Ġparameter": 3807,
      "mmet": 3808,
      "Ġlinear": 3809,
      "Ġneeds": 3810,
      "Ġbegin": 3811,
      "Big": 3812,
      "Ġpriv": 3813,
      "Ġconsist": 3814,
      "Ġconsidered": 3815,
      "è¯ĹæŃĮ": 3816,
      "col": 3817,
      "è®¨": 3818,
      "Ġcorrect": 3819,
      "chie": 3820,
      "åıĳçİ°": 3821,
      "Ġindividual": 3822,
      "Ġess": 3823,
      "Ġapplication": 3824,
      ",å¿": 3825,
      "çĬ¶": 3826,
      "ä¸ªäºº": 3827,
      "mathsf": 3828,
      "Ġamount": 3829,
      "Ġdat": 3830,
      "lying": 3831,
      "?\"": 3832,
      "How": 3833,
      "ashington": 3834,
      "upp": 3835,
      "ights": 3836,
      "æĸ°åªĴä½ĵ": 3837,
      "[\\": 3838,
      "äºĴèģĶç½ĳ": 3839,
      "ĠTr": 3840,
      "Ġaddress": 3841,
      "Ġequival": 3842,
      "inese": 3843,
      "Ġfund": 3844,
      "Ġisn": 3845,
      "Ġsure": 3846,
      "vec": 3847,
      "Ġviol": 3848,
      "Ġrange": 3849,
      "æĬĹ": 3850,
      "åĲ¦": 3851,
      "Ġfamil": 3852,
      "ç¦ı": 3853,
      "Ġestabl": 3854,
      "Ġdev": 3855,
      "ä½ľçĶ¨": 3856,
      "Ġindependent": 3857,
      "Ġwhole": 3858,
      "Ġlay": 3859,
      "ç§Ģ": 3860,
      "now": 3861,
      "Ġtarg": 3862,
      ",æĢ": 3863,
      "orphism": 3864,
      "ires": 3865,
      "Ġwage": 3866,
      "{eqnarray": 3867,
      "Ġmed": 3868,
      ",æĶ": 3869,
      ",æĹł": 3870,
      "Ġrandom": 3871,
      "Ġwords": 3872,
      "ledge": 3873,
      "uments": 3874,
      "åľ°æĸ¹": 3875,
      "medi": 3876,
      "circ": 3877,
      "dots": 3878,
      "oms": 3879,
      "è´Ł": 3880,
      "Ġcontext": 3881,
      "åŃ¦ä¹ł": 3882,
      "å´": 3883,
      "Ġequation": 3884,
      "Ġstarted": 3885,
      "~~": 3886,
      "You": 3887,
      "ĠFood": 3888,
      "Ġcontribut": 3889,
      "çĮ®": 3890,
      "{b": 3891,
      "Ġwid": 3892,
      "Ġexpect": 3893,
      "ON": 3894,
      "Ġgre": 3895,
      "çŁ¥è¯Ĩ": 3896,
      ",åİ": 3897,
      "Ġfrequ": 3898,
      "Ġlength": 3899,
      "Ġcomputer": 3900,
      "èĭ¥": 3901,
      "Ġtext": 3902,
      "Ġproperties": 3903,
      "éģĩ": 3904,
      "Sigma": 3905,
      "Ġstudents": 3906,
      "Ġdr": 3907,
      "ĠProgram": 3908,
      "ĠPython": 3909,
      "lin": 3910,
      "ä½¿çĶ¨": 3911,
      "mod": 3912,
      "äºĨè§£": 3913,
      "Ġimplementation": 3914,
      "ĠKing": 3915,
      "ĠMcDonald": 3916,
      "Ġpattern": 3917,
      "Ġemployees": 3918,
      "å¾ħ": 3919,
      "sh": 3920,
      "ale": 3921,
      "ĠPres": 3922,
      "æ¹¾": 3923,
      "ĠWashington": 3924,
      "Ġresour": 3925,
      "non": 3926,
      "&\\": 3927,
      "Ġapproxim": 3928,
      "ĠBur": 3929,
      "\"ä¸Ģ": 3930,
      "Ġitem": 3931,
      "æ¸¯": 3932,
      "æł¸": 3933,
      "AN": 3934,
      "bit": 3935,
      "Ġanaly": 3936,
      "ä½Ľ": 3937,
      "izations": 3938,
      "ĠSince": 3939,
      "Ġextens": 3940,
      "arc": 3941,
      "æľ¬ä¹¦": 3942,
      "Ġingred": 3943,
      "ape": 3944,
      "ç«¥": 3945,
      "Ġcoverage": 3946,
      "Ġthread": 3947,
      "ament": 3948,
      "çİ¯å¢ĥ": 3949,
      "$.Ċ": 3950,
      "ç®¡çĲĨ": 3951,
      "åħ¨åĽ½": 3952,
      "Ġtas": 3953,
      "EE": 3954,
      "ä¼ģä¸ļ": 3955,
      "Ġespecially": 3956,
      "}}_": 3957,
      "å½¢è±¡": 3958,
      "æĺ¯ä¸Ģä¸ª": 3959,
      "ĠGr": 3960,
      "Ġlarger": 3961,
      "ä¸´": 3962,
      "hood": 3963,
      "iers": 3964,
      "Con": 3965,
      "ä»į": 3966,
      "Ġmap": 3967,
      "æĭ©": 3968,
      "wise": 3969,
      "ĠCol": 3970,
      "Ġlimit": 3971,
      "When": 3972,
      "ĠJew": 3973,
      "Ġexplain": 3974,
      "ç»Ħç»ĩ": 3975,
      "gebra": 3976,
      "fficient": 3977,
      "çģ«": 3978,
      "Ġallows": 3979,
      "Ġconcern": 3980,
      "ä¸įæĸŃ": 3981,
      "é²ģ": 3982,
      "è¯Ħè®º": 3983,
      "Ġimm": 3984,
      "Ġill": 3985,
      ",ä»ĸä»¬": 3986,
      "ç§»": 3987,
      "Ġtakes": 3988,
      "æķ°æį®": 3989,
      "Ġvector": 3990,
      "otimes": 3991,
      "èĻ½çĦ¶": 3992,
      "çļĩ": 3993,
      ".èĢĮ": 3994,
      "Ġabs": 3995,
      "å¥½çļĦ": 3996,
      "ĠCar": 3997,
      "ĠĠĠĠĠĠ": 3998,
      "_s": 3999,
      "Ġprovides": 4000,
      "Ġmultiple": 4001,
      "Ġminimum": 4002,
      "Ġentire": 4003,
      "Ġ\\\\": 4004,
      "place": 4005,
      "Ġmot": 4006,
      "ĠAfric": 4007,
      "Ġoriginal": 4008,
      "æĦıè¯Ĩ": 4009,
      "Ġquite": 4010,
      "æĹ¥æľ¬": 4011,
      "Ġlooking": 4012,
      "-time": 4013,
      "ä¸Ńå¤®": 4014,
      "Ġfinite": 4015,
      "aily": 4016,
      "chan": 4017,
      "Ġbegan": 4018,
      "-M": 4019,
      "æĺł": 4020,
      "Ġthus": 4021,
      "raphics": 4022,
      "ĠMay": 4023,
      "order": 4024,
      "Al": 4025,
      "é¦Ĩ": 4026,
      "æľīçļĦ": 4027,
      "Ġprim": 4028,
      "åıĺåĮĸ": 4029,
      "Ġtold": 4030,
      "Ġwriting": 4031,
      "çľŁå®ŀ": 4032,
      "Ġpair": 4033,
      "éĩĩè®¿": 4034,
      "åºĶè¯¥": 4035,
      "âĪ": 4036,
      "ĠChinese": 4037,
      "ç¡Ģ": 4038,
      "Ġseries": 4039,
      "augh": 4040,
      "tail": 4041,
      "Ġself": 4042,
      "åĲĽ": 4043,
      "Ġusually": 4044,
      "Ġyet": 4045,
      "Ġcoffee": 4046,
      "Ġincrease": 4047,
      ",æĪĸ": 4048,
      "Ġtable": 4049,
      ",å½ĵ": 4050,
      "æĺ¯åľ¨": 4051,
      "Ġcorresponding": 4052,
      "Ġtoward": 4053,
      "Ġappl": 4054,
      "iddle": 4055,
      "AR": 4056,
      "ilt": 4057,
      "è¯ķ": 4058,
      "Ġpresident": 4059,
      "Ġyoung": 4060,
      "uth": 4061,
      "æ¦Ĥ": 4062,
      "ai": 4063,
      "Ġbelow": 4064,
      "åıĻ": 4065,
      "ivil": 4066,
      "ç¿»": 4067,
      "On": 4068,
      "Ġconv": 4069,
      "Ġadded": 4070,
      "?ĊĊ": 4071,
      "Ġdimens": 4072,
      "ley": 4073,
      "Ġcountries": 4074,
      "Ġhours": 4075,
      "ĠCo": 4076,
      "Ġdig": 4077,
      "Ġautom": 4078,
      "ĠApp": 4079,
      "{array": 4080,
      "åĪĨæŀĲ": 4081,
      "Ġrele": 4082,
      "Ġchain": 4083,
      "çĶ¨æĪ·": 4084,
      "å¸Ĥåľº": 4085,
      "ging": 4086,
      "çŁ¥éģĵ": 4087,
      "Ġphys": 4088,
      "åŁºç¡Ģ": 4089,
      ",æı": 4090,
      ",åĮ": 4091,
      "ä¹ħ": 4092,
      "appa": 4093,
      "Ġever": 4094,
      "{G": 4095,
      "çĥĪ": 4096,
      "æł¡": 4097,
      "ĠPress": 4098,
      "Ġseems": 4099,
      "æĸ¹æ³ķ": 4100,
      "Ġmatter": 4101,
      "Ġtaken": 4102,
      "æĥħåĨµ": 4103,
      "umn": 4104,
      "Ġfeature": 4105,
      "Ġart": 4106,
      "cludeg": 4107,
      "cludegraphics": 4108,
      "Ġlearning": 4109,
      "ĠJohn": 4110,
      "Ġexc": 4111,
      "Ġthought": 4112,
      "é£ŀ": 4113,
      "-y": 4114,
      "vey": 4115,
      "ological": 4116,
      "ogn": 4117,
      "ĠPer": 4118,
      "ĠFrench": 4119,
      "Ġelse": 4120,
      "Ġinflu": 4121,
      ",è¦ģ": 4122,
      "urb": 4123,
      "rist": 4124,
      "ĠSome": 4125,
      "æĻļ": 4126,
      "è·µ": 4127,
      "éĿ©åĳ½": 4128,
      "Ġmaxim": 4129,
      "Ġpredict": 4130,
      "åħ³æ³¨": 4131,
      "use": 4132,
      "hers": 4133,
      "Ġimprove": 4134,
      "Ġdescribed": 4135,
      "Ġcustomers": 4136,
      "Ġflow": 4137,
      "Ġlight": 4138,
      "Ġformul": 4139,
      "Ġoperator": 4140,
      "Ġpositive": 4141,
      "ĠAmericans": 4142,
      "istan": 4143,
      "å³": 4144,
      "Ġsequence": 4145,
      "Ġmeet": 4146,
      "Ch": 4147,
      "Ġpri": 4148,
      "'d": 4149,
      "Ġport": 4150,
      "acy": 4151,
      "Ġrequired": 4152,
      "äºĭå®ŀ": 4153,
      "åĲ«": 4154,
      "Ġobtained": 4155,
      "ĠGu": 4156,
      "Ġmoment": 4157,
      "Ġreporting": 4158,
      "å¨ģ": 4159,
      "ĠMan": 4160,
      "iet": 4161,
      "\"æĺ¯": 4162,
      "Ġtrying": 4163,
      "ĠFig": 4164,
      "é¾Ļ": 4165,
      "ser": 4166,
      ",å·": 4167,
      "Ġimpact": 4168,
      "åĻ¨": 4169,
      "Ġprovided": 4170,
      "Ġmagn": 4171,
      "Ġ{Ċ": 4172,
      "ĠĠĊ": 4173,
      "Ġbecame": 4174,
      "ober": 4175,
      "Ġtaking": 4176,
      "ä¸Ģæł·": 4177,
      "Ġq": 4178,
      "ĠBrit": 4179,
      "Lambda": 4180,
      "ats": 4181,
      "æ¿Ģ": 4182,
      "åħĪçĶŁ": 4183,
      "Ġuses": 4184,
      "Ġfile": 4185,
      "æłĳ": 4186,
      "èĥľ": 4187,
      "gress": 4188,
      "Ġachie": 4189,
      "\\!": 4190,
      "Phi": 4191,
      "ms": 4192,
      "',": 4193,
      "æİĴ": 4194,
      "rote": 4195,
      ");Ċ": 4196,
      "ests": 4197,
      "isk": 4198,
      "Ġlines": 4199,
      "æīĢä»¥": 4200,
      "æĬķ": 4201,
      "orks": 4202,
      "Ġcy": 4203,
      "åıĳçĶŁ": 4204,
      "Ġinterpre": 4205,
      "Ġsqu": 4206,
      "Ġstaff": 4207,
      "äººç±»": 4208,
      "ä¸ºäºĨ": 4209,
      "ĠNo": 4210,
      "ĠTheorem": 4211,
      "éĿĻ": 4212,
      "kappa": 4213,
      "Ġaction": 4214,
      "Ġgives": 4215,
      "isp": 4216,
      "caption": 4217,
      "è¿ĺæĺ¯": 4218,
      "itors": 4219,
      "Ġrules": 4220,
      "Ġneeded": 4221,
      "åħ³äºİ": 4222,
      "imate": 4223,
      "ying": 4224,
      "inal": 4225,
      "dd": 4226,
      "AT": 4227,
      "Ġdou": 4228,
      "éĺ¿": 4229,
      "Ġground": 4230,
      "aign": 4231,
      "uge": 4232,
      "ç®Ĺ": 4233,
      "å¯»": 4234,
      "Ġevents": 4235,
      "Ġprec": 4236,
      "Ġcommunic": 4237,
      "Ġrespons": 4238,
      "Ġmonths": 4239,
      "èģļ": 4240,
      "Ġproducts": 4241,
      "Ġquick": 4242,
      "éĽĦ": 4243,
      "ä¸»é¢ĺ": 4244,
      "ux": 4245,
      "Ġhold": 4246,
      "çĶ±äºİ": 4247,
      "Ġbasic": 4248,
      "Ġtemper": 4249,
      "Ġren": 4250,
      ",ä¸İ": 4251,
      "Ġconstraint": 4252,
      "Ġbreak": 4253,
      "rap": 4254,
      "pper": 4255,
      "æ°¸": 4256,
      "Ġneigh": 4257,
      "Ġthemselves": 4258,
      "çī¹åĪ«": 4259,
      "çĶŁäº§": 4260,
      "Ġcreated": 4261,
      "Pro": 4262,
      ",åį³": 4263,
      "åĲ¯": 4264,
      "æĸ½": 4265,
      "æĤ²": 4266,
      "ership": 4267,
      "åħ¶ä»ĸ": 4268,
      "mber": 4269,
      "Ġprop": 4270,
      "çĽ¸åħ³": 4271,
      "Ġbi": 4272,
      "Ġimage": 4273,
      "åįĬ": 4274,
      "éĢīæĭ©": 4275,
      "ĠSyri": 4276,
      "Ġuseful": 4277,
      "Ġfunctional": 4278,
      "Ġincreasing": 4279,
      "Ġge": 4280,
      "with": 4281,
      "ĠPol": 4282,
      "èİ·å¾Ĺ": 4283,
      "Ġexpression": 4284,
      "åĽŃ": 4285,
      "ĠBl": 4286,
      "å¤ľ": 4287,
      "arily": 4288,
      "Ġsoftware": 4289,
      "å©": 4290,
      "ç¼º": 4291,
      "cup": 4292,
      "Ġquality": 4293,
      "äº¦": 4294,
      "And": 4295,
      "Ġshare": 4296,
      "overed": 4297,
      "ault": 4298,
      "è¿ħ": 4299,
      "ĠThus": 4300,
      "ä¹ĭä¸Ģ": 4301,
      "åĳ¢": 4302,
      "unction": 4303,
      "Ġproperty": 4304,
      "subset": 4305,
      "Ġreported": 4306,
      "æĿĢ": 4307,
      "æĮ¥": 4308,
      "Ġwrote": 4309,
      "ä¸Ģå®ļ": 4310,
      "Ġclose": 4311,
      "Ġformer": 4312,
      "è¯·": 4313,
      "}.Ċ": 4314,
      "æ³¢": 4315,
      "Ġmachine": 4316,
      "mers": 4317,
      "ĠSec": 4318,
      "å°ģ": 4319,
      "Ġblack": 4320,
      "ç¬¬äºĮ": 4321,
      "Ġoutput": 4322,
      "åĪ¤": 4323,
      "èµ·æĿ¥": 4324,
      "ises": 4325,
      "å®Ŀ": 4326,
      "åĬĽéĩı": 4327,
      "å¹ħ": 4328,
      "{n": 4329,
      "Ġexists": 4330,
      "aid": 4331,
      "ele": 4332,
      "uck": 4333,
      ".~\\": 4334,
      "-le": 4335,
      "reet": 4336,
      "Ġassign": 4337,
      "åĢŁ": 4338,
      "éļĲ": 4339,
      "oted": 4340,
      "exp": 4341,
      "çľĭåĪ°": 4342,
      "AS": 4343,
      "Ġdirectly": 4344,
      "Ġblock": 4345,
      "ä¸įä»ħ": 4346,
      "Ġtarget": 4347,
      "Ġcolumn": 4348,
      "Ġant": 4349,
      "Ġargument": 4350,
      "atives": 4351,
      "more": 4352,
      "Ġhotel": 4353,
      "ç¥ĸ": 4354,
      "allel": 4355,
      "mail": 4356,
      "Ġstring": 4357,
      "éĢĲ": 4358,
      "Ġwent": 4359,
      "Ġequal": 4360,
      "åĲĦç§į": 4361,
      "åŃ©": 4362,
      "Ġoutside": 4363,
      "ä¸½": 4364,
      "Ġtraditional": 4365,
      "Ġuser": 4366,
      "å®³": 4367,
      "æĽ´å¤ļ": 4368,
      "Ġzero": 4369,
      "curity": 4370,
      "åŁºæľ¬": 4371,
      "çļĦå¤§": 4372,
      "å¿ħé¡»": 4373,
      "ĠCan": 4374,
      "aced": 4375,
      "(n": 4376,
      "So": 4377,
      "çĽĳ": 4378,
      "Ġnumer": 4379,
      "ured": 4380,
      "mall": 4381,
      "æ¸Ĳ": 4382,
      "Ġmathemat": 4383,
      "Ġ\\{": 4384,
      "emph": 4385,
      "opp": 4386,
      "ĠPost": 4387,
      "Ġprobably": 4388,
      "æĦ¿": 4389,
      "Ġnode": 4390,
      "Ġsubject": 4391,
      "æĳĦ": 4392,
      "éĽ¨": 4393,
      "å·¨": 4394,
      "Ġdocument": 4395,
      "onstr": 4396,
      "ĠNow": 4397,
      "çĲĨè§£": 4398,
      "Ġassociated": 4399,
      "Ġflo": 4400,
      ",å°Ĩ": 4401,
      "\\_": 4402,
      "Ex": 4403,
      "æī¬": 4404,
      "éĩİ": 4405,
      "ĠWhile": 4406,
      "èĬĤçĽ®": 4407,
      "\\{": 4408,
      "Ġ...": 4409,
      "çİĩ": 4410,
      "Ġserved": 4411,
      "Ġworked": 4412,
      "æĢİ": 4413,
      "ä¼Ł": 4414,
      "æ´²": 4415,
      "OR": 4416,
      "ä¼łåªĴ": 4417,
      "åĽ°": 4418,
      "abla": 4419,
      "ĠCity": 4420,
      "hing": 4421,
      "æĹ§": 4422,
      "Ġingredients": 4423,
      "Ġmechan": 4424,
      "sing": 4425,
      "Ġrule": 4426,
      "Ġbring": 4427,
      "Ġcross": 4428,
      "éĢı": 4429,
      "Ġkitchen": 4430,
      "çĽĽ": 4431,
      "é²ľ": 4432,
      "ä¸°å¯Į": 4433,
      "orter": 4434,
      "æĺŁ": 4435,
      "ev": 4436,
      "ĠCal": 4437,
      "nabla": 4438,
      "\\text": 4439,
      "Ġword": 4440,
      "Ġsite": 4441,
      "eb": 4442,
      "unch": 4443,
      "{m": 4444,
      "({\\": 4445,
      "æķĻèĤ²": 4446,
      "Ġcompiler": 4447,
      "é¼": 4448,
      "Ġhy": 4449,
      "Ġconver": 4450,
      "äº«": 4451,
      "Ġslow": 4452,
      "Ġnatural": 4453,
      "åħ¬åı¸": 4454,
      "Ġsearch": 4455,
      "aring": 4456,
      "\\|": 4457,
      "ä¸»æµģ": 4458,
      "Ġapplications": 4459,
      "Ġabst": 4460,
      "ĠSouth": 4461,
      "Ġpolicy": 4462,
      "rees": 4463,
      "Ġsolutions": 4464,
      "Ġprinc": 4465,
      "istics": 4466,
      "ground": 4467,
      "è·Ł": 4468,
      "Ġrelated": 4469,
      "ĠMe": 4470,
      "Ġstatement": 4471,
      "çĹħ": 4472,
      "Ġcoll": 4473,
      "-g": 4474,
      ";\\": 4475,
      "äº§çĶŁ": 4476,
      "ç§ĳåŃ¦": 4477,
      "ociety": 4478,
      "å¹´ä»£": 4479,
      "ĠGo": 4480,
      "åªĴä½ĵçļĦ": 4481,
      "åĲ´": 4482,
      "lex": 4483,
      "era": 4484,
      "ç¾¤ä¼Ĺ": 4485,
      "Ġmater": 4486,
      "irt": 4487,
      "éĶĻ": 4488,
      "Ġsurv": 4489,
      "Ġsent": 4490,
      "\"Ċ": 4491,
      "Ġblog": 4492,
      "Ġexpected": 4493,
      "ä¸įåı¯": 4494,
      "æĿ¥è¯´": 4495,
      "Ġanything": 4496,
      "Ġfactor": 4497,
      "Ġbelieve": 4498,
      "Ġgetting": 4499,
      "æı¡": 4500,
      "å·®": 4501,
      "ĠPl": 4502,
      "Ġnormal": 4503,
      "Ġfri": 4504,
      "Ġopportun": 4505,
      "Ġeconomy": 4506,
      "è¥¿æĸ¹": 4507,
      "ç´§": 4508,
      "çĸĳ": 4509,
      "Ġdemonstr": 4510,
      "Ġcontinue": 4511,
      "uisine": 4512,
      "çľŁæŃ£": 4513,
      "Ġattention": 4514,
      "ĠFr": 4515,
      "Ġanswer": 4516,
      "hern": 4517,
      "ä¸¤ä¸ª": 4518,
      "ister": 4519,
      "Ġsect": 4520,
      "Ġsix": 4521,
      "Ġoperation": 4522,
      "igr": 4523,
      "ä¸Ńåįİ": 4524,
      "Ġnation": 4525,
      "Ġcoun": 4526,
      "Com": 4527,
      "åģĩ": 4528,
      "åľ£": 4529,
      "æĭħ": 4530,
      "Ġdeath": 4531,
      "ceed": 4532,
      "iven": 4533,
      "ä¹±": 4534,
      "æİĪ": 4535,
      "atively": 4536,
      "_m": 4537,
      ",åį´": 4538,
      "oph": 4539,
      "}}{": 4540,
      "Ġfinal": 4541,
      "ĠAb": 4542,
      "ĠAssoci": 4543,
      "ret": 4544,
      "Ġsets": 4545,
      "Ġexactly": 4546,
      ",å±": 4547,
      "ump": 4548,
      ",åĽłä¸º": 4549,
      "Ġrev": 4550,
      "Ġfreedom": 4551,
      "ãģ": 4552,
      "Ġoffer": 4553,
      "ĠWal": 4554,
      "Ġsecurity": 4555,
      "Ġparent": 4556,
      "Ġprobability": 4557,
      "refore": 4558,
      "Ġlonger": 4559,
      "icro": 4560,
      "åªĴä»ĭ": 4561,
      ",æīĢä»¥": 4562,
      "Ġbuilding": 4563,
      "tr": 4564,
      "Ġsmaller": 4565,
      "ç§¦": 4566,
      "æ¯Ľ": 4567,
      "):": 4568,
      "ĠPr": 4569,
      "ĠCor": 4570,
      "è½¦": 4571,
      "cial": 4572,
      "äº®": 4573,
      "haps": 4574,
      "}}Ċ": 4575,
      "æĪĺäºī": 4576,
      "åī¯": 4577,
      "Ġbread": 4578,
      "ued": 4579,
      ",çĶ¨": 4580,
      "åĮĹäº¬": 4581,
      "ç±į": 4582,
      "Ġland": 4583,
      "äº¡": 4584,
      "Ġcaus": 4585,
      "é¢ĨåŁŁ": 4586,
      "ilde": 4587,
      "æİ§": 4588,
      "éľ²": 4589,
      "arb": 4590,
      "Ġcampaign": 4591,
      "{-": 4592,
      "which": 4593,
      "ression": 4594,
      ")(": 4595,
      "ecause": 4596,
      "çİī": 4597,
      "exic": 4598,
      "Ġiter": 4599,
      "$Ċ": 4600,
      "fully": 4601,
      "emma": 4602,
      "Ġrespectively": 4603,
      "Ġbase": 4604,
      "(s": 4605,
      "é»ĳ": 4606,
      "aut": 4607,
      "ided": 4608,
      "{g": 4609,
      "ĠPresident": 4610,
      "Ġvia": 4611,
      "Ġdegree": 4612,
      "Ġred": 4613,
      "å®ŀè·µ": 4614,
      "Ġmention": 4615,
      "éĢģ": 4616,
      "å¦ĤæŃ¤": 4617,
      "Ġair": 4618,
      "Ġaud": 4619,
      ".æĪĳ": 4620,
      "ä½İ": 4621,
      "åıĮ": 4622,
      "çĨŁ": 4623,
      "ows": 4624,
      "edd": 4625,
      "æ²ī": 4626,
      "ĠAP": 4627,
      "åºŃ": 4628,
      "Ġrecently": 4629,
      "Ġste": 4630,
      "ones": 4631,
      "åĪĽéĢł": 4632,
      "ino": 4633,
      "rig": 4634,
      "Ġregard": 4635,
      ",æīį": 4636,
      "Ġinteresting": 4637,
      "Ġsold": 4638,
      "Ġinternational": 4639,
      "çº³": 4640,
      "Ġinterview": 4641,
      ",åı¯": 4642,
      "åĲ¸": 4643,
      "çļĦæĹ¶åĢĻ": 4644,
      "-S": 4645,
      "ĠCenter": 4646,
      "itude": 4647,
      "cle": 4648,
      "-to": 4649,
      "ĠItal": 4650,
      "Ġnote": 4651,
      ".\\": 4652,
      "Ġexperiment": 4653,
      "OS": 4654,
      "æ¥¼": 4655,
      "çĳ": 4656,
      "no": 4657,
      "éģĹ": 4658,
      "mon": 4659,
      "ç»ĵæŀĦ": 4660,
      "Ġeducation": 4661,
      "Ġinside": 4662,
      "aches": 4663,
      "Un": 4664,
      "ĠSection": 4665,
      ".åħ¶": 4666,
      "Ġprove": 4667,
      "Ġstri": 4668,
      "Ġeverything": 4669,
      "ĠSch": 4670,
      "plit": 4671,
      "IS": 4672,
      "eter": 4673,
      "ĠPe": 4674,
      "ulations": 4675,
      "ç³»ç»Ł": 4676,
      "widet": 4677,
      "Ġassume": 4678,
      "½Ĳ": 4679,
      "time": 4680,
      "èĦ±": 4681,
      "One": 4682,
      "Ġdri": 4683,
      ",äºº": 4684,
      "Ġsens": 4685,
      "Ġcosts": 4686,
      "ĠNe": 4687,
      "Ġoperators": 4688,
      "Ġ\\[]": 4689,
      "ĠMat": 4690,
      "Ġteam": 4691,
      "Ġdistribut": 4692,
      "rices": 4693,
      "icit": 4694,
      "ĠPal": 4695,
      "æ¯Ķè¾ĥ": 4696,
      "èį£": 4697,
      "Ġarray": 4698,
      "Ġbehind": 4699,
      "oes": 4700,
      "Ġdeep": 4701,
      "Ġlive": 4702,
      "å¹¿åĳĬ": 4703,
      "Ġavoid": 4704,
      "Ġcontains": 4705,
      "Ġactiv": 4706,
      "Ġchoice": 4707,
      "ĠMedia": 4708,
      ",æĬĬ": 4709,
      ",æ°": 4710,
      "Ġreference": 4711,
      "Ġoccur": 4712,
      "Ġadditional": 4713,
      "Ġexamples": 4714,
      "head": 4715,
      "Ġmaintain": 4716,
      "åĩºçļĦ": 4717,
      "Ġfront": 4718,
      "Ġlink": 4719,
      "Ġeat": 4720,
      "ĠSim": 4721,
      "Ġsales": 4722,
      "å·´": 4723,
      "Ġcomplete": 4724,
      "ades": 4725,
      "Ġedge": 4726,
      "ishing": 4727,
      "Ġquestions": 4728,
      "lected": 4729,
      ",y": 4730,
      "ordin": 4731,
      "Ġdensity": 4732,
      "æ¹ĸ": 4733,
      "Ġnecessary": 4734,
      ".)": 4735,
      "ait": 4736,
      "å°ļ": 4737,
      "Ġdish": 4738,
      "gers": 4739,
      "åĺ": 4740,
      "Ġeasily": 4741,
      "\\frac": 4742,
      "Ġarch": 4743,
      "NE": 4744,
      "ĠGe": 4745,
      "Ġfixed": 4746,
      "Ġmiss": 4747,
      "ĠSte": 4748,
      "ĠNorth": 4749,
      "åº·": 4750,
      "ames": 4751,
      "Ġforeign": 4752,
      "}-": 4753,
      "Ġrecogn": 4754,
      "Ġdiscussion": 4755,
      "Ġ)": 4756,
      "Ġtransform": 4757,
      "lection": 4758,
      "Ġrelationship": 4759,
      "widetilde": 4760,
      "æĶ¹éĿ©": 4761,
      "Ġwanted": 4762,
      "çĦ¶èĢĮ": 4763,
      "OP": 4764,
      "Ġculture": 4765,
      "Ġchalleng": 4766,
      "Ġtransition": 4767,
      "ĠGerm": 4768,
      "Ġbehavior": 4769,
      "Ġface": 4770,
      "Ġunit": 4771,
      ",èĢĮæĺ¯": 4772,
      "Ġliving": 4773,
      "åĨ²": 4774,
      "ategy": 4775,
      "Ġareas": 4776,
      "Ġprep": 4777,
      "Ġphase": 4778,
      "Ġdiag": 4779,
      "ĠRuss": 4780,
      "box": 4781,
      "Ġtherefore": 4782,
      "*]{}": 4783,
      "æł·çļĦ": 4784,
      "Ġnothing": 4785,
      "æŃ¢": 4786,
      "Ġsources": 4787,
      "Ð»": 4788,
      "ä¸ĭçļĦ": 4789,
      "ĠNot": 4790,
      "Ġfit": 4791,
      "Ġbroadcast": 4792,
      "åŃĻ": 4793,
      "style": 4794,
      "Ġwind": 4795,
      "lor": 4796,
      "Ġproced": 4797,
      "Ġessential": 4798,
      "Ġreaders": 4799,
      "Ġpie": 4800,
      "æľ¨": 4801,
      "è¿¹": 4802,
      "Ġtechnology": 4803,
      "Ġ``": 4804,
      "earch": 4805,
      "Ġpopulation": 4806,
      "off": 4807,
      "èı": 4808,
      "yond": 4809,
      "èµı": 4810,
      "\\section": 4811,
      "Ġevalu": 4812,
      "Ġinteger": 4813,
      "èµĦæºĲ": 4814,
      "åıĹä¼Ĺ": 4815,
      "ĠMon": 4816,
      "ä¼¤": 4817,
      "éĨ": 4818,
      "\"åĴĮ": 4819,
      "Ġstyle": 4820,
      "Ġfall": 4821,
      "Ġmind": 4822,
      "ously": 4823,
      "Ġincluded": 4824,
      "]$": 4825,
      "hline": 4826,
      "ze": 4827,
      "ĠMexic": 4828,
      "èµĭ": 4829,
      "Ġhouse": 4830,
      "Ġaccept": 4831,
      "è£ħ": 4832,
      "å®¤": 4833,
      "Ġdra": 4834,
      "å®ŀéĻħ": 4835,
      "Ġlabel": 4836,
      "åħ±åĲĮ": 4837,
      "\\leq": 4838,
      "Ġcivil": 4839,
      "Ġforce": 4840,
      "aves": 4841,
      "Ġrecipes": 4842,
      "-year": 4843,
      "Ġunique": 4844,
      "æľīä¸Ģ": 4845,
      "IT": 4846,
      "Ġones": 4847,
      "Ġsomeone": 4848,
      "çļĦéĩįè¦ģ": 4849,
      "Ġcompared": 4850,
      "ĠEd": 4851,
      "Ġstores": 4852,
      "ĠNPR": 4853,
      "Ġvide": 4854,
      "leg": 4855,
      "Ġattack": 4856,
      "Ġdeveloped": 4857,
      "Ġmatch": 4858,
      "\\times": 4859,
      "ç©ºéĹ´": 4860,
      "wo": 4861,
      "Ġtask": 4862,
      ",èĢĮä¸Ķ": 4863,
      "åİļ": 4864,
      "ç§¯æŀģ": 4865,
      "-level": 4866,
      "Ġprivate": 4867,
      ".p": 4868,
      "ips": 4869,
      "Ġservices": 4870,
      "mar": 4871,
      "Ġdest": 4872,
      "æĩ": 4873,
      "Ġknowledge": 4874,
      "ĠInternet": 4875,
      "åı°æ¹¾": 4876,
      "æ¨¡å¼ı": 4877,
      "Ġmanagement": 4878,
      "ĠDep": 4879,
      "Ġcritical": 4880,
      ",æĸ°éĹ»": 4881,
      "æ¬§": 4882,
      "Ġinsp": 4883,
      "Ġprior": 4884,
      "IC": 4885,
      "iver": 4886,
      "Ġimpl": 4887,
      "Ġreporters": 4888,
      "ĠMar": 4889,
      ")=\\": 4890,
      ",j": 4891,
      "æīĺ": 4892,
      "Ġroom": 4893,
      "ĠHar": 4894,
      "Ġsche": 4895,
      "Ġparts": 4896,
      "åłĤ": 4897,
      "å¤§å®¶": 4898,
      "æ³Ľ": 4899,
      "Ġbat": 4900,
      "Ġmodern": 4901,
      "Ġtree": 4902,
      ",æĦ": 4903,
      "ĠHere": 4904,
      "Ġimmedi": 4905,
      "ĠAfter": 4906,
      "Ġpan": 4907,
      "è§Ĩé¢ĳ": 4908,
      "Ġinterface": 4909,
      ",ä½ł": 4910,
      "minist": 4911,
      "ç¤¼": 4912,
      "dis": 4913,
      "nom": 4914,
      "Ġtransl": 4915,
      "\\subsection": 4916,
      "elling": 4917,
      "nonumber": 4918,
      "å°¼": 4919,
      "çī¹çĤ¹": 4920,
      ",ä½Ĩæĺ¯": 4921,
      "etimes": 4922,
      "åĲĪä½ľ": 4923,
      "äºĮåįģ": 4924,
      "illing": 4925,
      "Ġcell": 4926,
      "ney": 4927,
      "Ġloss": 4928,
      "Ġcuisine": 4929,
      "ework": 4930,
      "rab": 4931,
      "åĮĸçļĦ": 4932,
      "sec": 4933,
      "Ġmar": 4934,
      "Ġreach": 4935,
      "Ġbad": 4936,
      ";ĊĊ": 4937,
      "Ġsymbol": 4938,
      "çĵ": 4939,
      "Ġemer": 4940,
      "è®¤è¯Ĩ": 4941,
      "Ġtax": 4942,
      "æĵį": 4943,
      "æ¼«": 4944,
      "umer": 4945,
      "apan": 4946,
      "levision": 4947,
      "åĪļ": 4948,
      "åĤ": 4949,
      "Ġattempt": 4950,
      "éĻĨ": 4951,
      "Ġbasis": 4952,
      "uce": 4953,
      "ites": 4954,
      "Ġlabor": 4955,
      "}+": 4956,
      "æĿ¨": 4957,
      "!Ċ": 4958,
      "çĻ»": 4959,
      "åĳĪ": 4960,
      "ä»»ä½ķ": 4961,
      "é¹": 4962,
      "'$": 4963,
      "åıĹåĪ°": 4964,
      "Ġsynta": 4965,
      "Ġthird": 4966,
      "Ġmenu": 4967,
      "Ġparticularly": 4968,
      "Ġexplicit": 4969,
      "max": 4970,
      "Ġ}Ċ": 4971,
      "Ġcentury": 4972,
      "NN": 4973,
      "izes": 4974,
      "iques": 4975,
      "æĽ´åĬł": 4976,
      "ĠQu": 4977,
      "ä½ĵçİ°": 4978,
      "Ġcommit": 4979,
      "Ġdetails": 4980,
      "äº§åĵģ": 4981,
      "Ġreview": 4982,
      "Ġrights": 4983,
      "ç»ıåİĨ": 4984,
      "æ¸©": 4985,
      "Ġalgebra": 4986,
      "ĠSun": 4987,
      "comp": 4988,
      "å®ģ": 4989,
      "aving": 4990,
      "Ġnearly": 4991,
      "éĽħ": 4992,
      ",ä¹Łæĺ¯": 4993,
      "èĢħçļĦ": 4994,
      "æ¥ļ": 4995,
      "åŁİå¸Ĥ": 4996,
      "matrix": 4997,
      "citep": 4998,
      "Ġasked": 4999,
      "å¿Ĩ": 5000,
      "ç»į": 5001,
      "back": 5002,
      "Ġjournalist": 5003,
      "åħį": 5004,
      "Ġsymmet": 5005,
      "oding": 5006,
      "-food": 5007,
      "Ġchann": 5008,
      ",å¥¹": 5009,
      "rec": 5010,
      "è´¥": 5011,
      "åįł": 5012,
      "åĿĽ": 5013,
      "atform": 5014,
      "_p": 5015,
      "Ġ&=": 5016,
      "Ġalgorithms": 5017,
      "ĠObama": 5018,
      "Ġcalls": 5019,
      "å½¢æĪĲ": 5020,
      "Ġindex": 5021,
      "sy": 5022,
      "textit": 5023,
      "Ġradio": 5024,
      ",æ·": 5025,
      "Ġhost": 5026,
      "éĻ©": 5027,
      "æľĢåĲİ": 5028,
      "çŃĶ": 5029,
      "ĠPar": 5030,
      "New": 5031,
      "éĿ¢å¯¹": 5032,
      "cdots": 5033,
      "Ġbuilt": 5034,
      "è¿Ľåħ¥": 5035,
      "é½Ĳ": 5036,
      "Ġbusinesses": 5037,
      "ĠFirst": 5038,
      "Ġhistor": 5039,
      "ä¸ĢæŃ¥": 5040,
      "ç±³": 5041,
      "æģ¶": 5042,
      "Ġvert": 5043,
      "ç¹": 5044,
      "è¿½æ±Ĥ": 5045,
      "Ġful": 5046,
      "Ġrunning": 5047,
      "èĵ": 5048,
      "Ġproduce": 5049,
      "Ġ[*": 5050,
      "éħį": 5051,
      "è¡¨ç¤º": 5052,
      "Ġ//": 5053,
      "å®«": 5054,
      "{X": 5055,
      "encies": 5056,
      "Ġdirector": 5057,
      "Ġupd": 5058,
      "za": 5059,
      "Ġtemperature": 5060,
      "æī§": 5061,
      "ief": 5062,
      "zeta": 5063,
      "-A": 5064,
      "è¾ŀ": 5065,
      "é¢Ĩå¯¼": 5066,
      "inks": 5067,
      "ç»ĵåĲĪ": 5068,
      "åıĳå¸ĥ": 5069,
      "ategory": 5070,
      "åľ°åĮº": 5071,
      "Ġpage": 5072,
      "Ġsurface": 5073,
      "çļĦåİĨåı²": 5074,
      "éĽª": 5075,
      "èĳĹåĲį": 5076,
      "åº§": 5077,
      "Ġinequ": 5078,
      "Ġsimpl": 5079,
      ",éļ": 5080,
      "Ġweight": 5081,
      "æĸĩæĺİ": 5082,
      "rast": 5083,
      "ĠFran": 5084,
      "è´£ä»»": 5085,
      "Ġgrowing": 5086,
      "ĠLemma": 5087,
      "Ġrequires": 5088,
      "Ġscale": 5089,
      "Ġcomment": 5090,
      "Ġefficient": 5091,
      "åĵ²": 5092,
      "ĠFrom": 5093,
      "ocks": 5094,
      "Ġgreater": 5095,
      "Ġtren": 5096,
      "çļĦåıĳå±ķ": 5097,
      "ä¸Ĭæµ·": 5098,
      "ĠFigure": 5099,
      "oke": 5100,
      "[width": 5101,
      "Ġequivalent": 5102,
      "oring": 5103,
      "çĶ·": 5104,
      "pose": 5105,
      "ĠChrist": 5106,
      "bl": 5107,
      "Ġeffects": 5108,
      "Ġrat": 5109,
      "Ġproposed": 5110,
      "Ġlives": 5111,
      "æĪĲåĬŁ": 5112,
      "é¢Ħ": 5113,
      "ids": 5114,
      "Ġdemand": 5115,
      "\\pi": 5116,
      "å§ĵ": 5117,
      "wed": 5118,
      "ĠChe": 5119,
      "ä¸įä¼ļ": 5120,
      "è¯ī": 5121,
      ",x": 5122,
      "inally": 5123,
      "ªåĬĽ": 5124,
      "-con": 5125,
      "Ġjo": 5126,
      "å·Ŀ": 5127,
      "ares": 5128,
      "Ġadvert": 5129,
      "rown": 5130,
      "Ġtools": 5131,
      "ĠBurger": 5132,
      "ĠState": 5133,
      "Ġfigure": 5134,
      "åıĳè¡¨": 5135,
      "éħĴ": 5136,
      "Ġang": 5137,
      "Ġpict": 5138,
      "ç¬¦": 5139,
      "æĪĳçļĦ": 5140,
      "Ġsometimes": 5141,
      "åŁ¹": 5142,
      "Ġcorpor": 5143,
      "è§ĤçĤ¹": 5144,
      "ĠHouse": 5145,
      ",t": 5146,
      "Ġincludes": 5147,
      "æ°ı": 5148,
      "under": 5149,
      ".C": 5150,
      "Ġreports": 5151,
      "ä¼¦": 5152,
      "mid": 5153,
      "å¸Ń": 5154,
      "anced": 5155,
      "Ġwages": 5156,
      ",åº": 5157,
      ",æıĲ": 5158,
      "åı«": 5159,
      "rain": 5160,
      "éĽĨåĽ¢": 5161,
      "ĠMy": 5162,
      "Ps": 5163,
      ")}\\": 5164,
      "eff": 5165,
      "}=\\": 5166,
      "Ġparticip": 5167,
      "utes": 5168,
      "åį±": 5169,
      "çīĮ": 5170,
      "ä¹¦è®°": 5171,
      "})\\": 5172,
      "æľ«": 5173,
      "ä»Ĭå¤©": 5174,
      "imal": 5175,
      "Ġlibrary": 5176,
      "azine": 5177,
      "å¹¸": 5178,
      "ç»ıéªĮ": 5179,
      "Ġgenerated": 5180,
      "ustr": 5181,
      "äºĭä¸ļ": 5182,
      "éĤ£äºĽ": 5183,
      "ĠPart": 5184,
      "è¯¯": 5185,
      "Ġresources": 5186,
      "åĵª": 5187,
      "Ġfries": 5188,
      "Now": 5189,
      "ç³»åĪĹ": 5190,
      "###": 5191,
      "Ġspeed": 5192,
      "Ġled": 5193,
      "prime": 5194,
      "åĿļæĮģ": 5195,
      "my": 5196,
      "é£İæł¼": 5197,
      "ĠJapan": 5198,
      "è¿Ļæł·çļĦ": 5199,
      "aged": 5200,
      "äººåĳĺ": 5201,
      "Ġ($": 5202,
      "Ġability": 5203,
      "/\\": 5204,
      "ç¹ģ": 5205,
      "Ġlate": 5206,
      "éľĩ": 5207,
      "{k": 5208,
      "åİĭ": 5209,
      "Ġapplied": 5210,
      "{a": 5211,
      "å®Įåħ¨": 5212,
      "mma": 5213,
      "èµµ": 5214,
      "_{{\\": 5215,
      "Ġsaf": 5216,
      "èĴĻ": 5217,
      "ç½ĳç«Ļ": 5218,
      "onse": 5219,
      "gment": 5220,
      "åį«": 5221,
      "Ġearl": 5222,
      "itiz": 5223,
      "åħ¨éĿ¢": 5224,
      "Ġretail": 5225,
      "Ġweak": 5226,
      "Ġdecision": 5227,
      "Ġitems": 5228,
      "Ġwhite": 5229,
      "åĪ¶åº¦": 5230,
      "\\rangle": 5231,
      "å»¶": 5232,
      "ii": 5233,
      "Ġholds": 5234,
      "^n": 5235,
      "Ġearn": 5236,
      "Ġgoes": 5237,
      "Ġaltern": 5238,
      ",æµ": 5239,
      "Ġinfin": 5240,
      "æĹłæ³ķ": 5241,
      "ä¸ľè¥¿": 5242,
      "å·¦": 5243,
      "èİ«": 5244,
      "æĿ¾": 5245,
      "Ġgenerally": 5246,
      "Ġfight": 5247,
      "çī¹èī²": 5248,
      "ocal": 5249,
      "Ġremains": 5250,
      "å¹´æĿ¥": 5251,
      "-C": 5252,
      "ached": 5253,
      "Ġclosed": 5254,
      "Ġcomplet": 5255,
      ".The": 5256,
      "Ġadvant": 5257,
      "icken": 5258,
      "rum": 5259,
      "ccording": 5260,
      "Ġstrategy": 5261,
      "ES": 5262,
      "çĸ«": 5263,
      "_c": 5264,
      "åĩºæĿ¥": 5265,
      "Ġorganizations": 5266,
      "éĩįè¦ģçļĦ": 5267,
      ",å°±æĺ¯": 5268,
      "Ġinn": 5269,
      "Ġfranch": 5270,
      "Ġchanged": 5271,
      ",æ¯ı": 5272,
      "ĠAfgh": 5273,
      "omb": 5274,
      "çĶ»å®¶": 5275,
      "Ġage": 5276,
      "åħ¨çĲĥ": 5277,
      "Ġkilled": 5278,
      "(X": 5279,
      "éĶĢ": 5280,
      "hib": 5281,
      "pped": 5282,
      "fect": 5283,
      "Ġbecomes": 5284,
      "åıªæľī": 5285,
      "omm": 5286,
      "Ġcore": 5287,
      "å»ºç«ĭ": 5288,
      "åĮħæĭ¬": 5289,
      "That": 5290,
      ",å¤ļ": 5291,
      "éĴ±": 5292,
      "Ġtheorem": 5293,
      "è¡Įä¸ļ": 5294,
      "çĽ´æİ¥": 5295,
      "æ·±åħ¥": 5296,
      "widehat": 5297,
      "åĲİæĿ¥": 5298,
      "äºĪ": 5299,
      "è°ģ": 5300,
      "éĿł": 5301,
      "Ġtreat": 5302,
      "Ġtravel": 5303,
      "Ġcapital": 5304,
      "glish": 5305,
      "ĠĠĠĠĠĠĠĠĠ": 5306,
      "çĶ°": 5307,
      ",åı¯ä»¥": 5308,
      "osing": 5309,
      "ĠJan": 5310,
      "Ġequations": 5311,
      "ards": 5312,
      "åĽº": 5313,
      "é¡¾": 5314,
      "æľºæŀĦ": 5315,
      ",æĥ": 5316,
      "Ġdistance": 5317,
      "mathit": 5318,
      "sk": 5319,
      "{Z": 5320,
      "Ġapply": 5321,
      "och": 5322,
      "å·§": 5323,
      "astic": 5324,
      "Ġrisk": 5325,
      "Ġdishes": 5326,
      "è¡Ģ": 5327,
      "Ġmeaning": 5328,
      "æīĢæľī": 5329,
      "è¿ĲåĬ¨": 5330,
      "{I": 5331,
      "ä¼¯": 5332,
      "alls": 5333,
      "olume": 5334,
      "éĺ²": 5335,
      "æĿľ": 5336,
      ".ĊĊĊ": 5337,
      "Ġappe": 5338,
      "Ñĥ": 5339,
      "erson": 5340,
      "å¤ı": 5341,
      "::": 5342,
      "è§¦": 5343,
      "AP": 5344,
      "çĹĽ": 5345,
      "Ġwebs": 5346,
      "æħ§": 5347,
      "Ġobserved": 5348,
      "imensional": 5349,
      "}}{\\": 5350,
      "arth": 5351,
      "pling": 5352,
      "imin": 5353,
      "ĠCons": 5354,
      "aul": 5355,
      "éŁµ": 5356,
      "å½ĵä»£": 5357,
      "Ġmis": 5358,
      "Ġcomponents": 5359,
      "Ġcopy": 5360,
      "Ġintroduced": 5361,
      "ĠCP": 5362,
      "ada": 5363,
      "Ġrefer": 5364,
      "èµŀ": 5365,
      "å¥ĭ": 5366,
      "Ġhope": 5367,
      "Ġ$(\\": 5368,
      "åıĳå±ķçļĦ": 5369,
      "Ġthreat": 5370,
      "Ġdaily": 5371,
      "æµª": 5372,
      "ederal": 5373,
      "lets": 5374,
      "Ġinvolved": 5375,
      "Ġetc": 5376,
      "éĶ®": 5377,
      ",ä»¥åıĬ": 5378,
      "artment": 5379,
      "Ġthous": 5380,
      "äº¤æµģ": 5381,
      "æĢĿèĢĥ": 5382,
      "Ġcomponent": 5383,
      "èĥĮæĻ¯": 5384,
      "ĠTherefore": 5385,
      ",æĮ": 5386,
      "Ġfair": 5387,
      "Ð°Ð": 5388,
      "At": 5389,
      "rep": 5390,
      "å¦Ļ": 5391,
      "proof": 5392,
      "Ġneighbor": 5393,
      "Ġsample": 5394,
      "oo": 5395,
      "Ġstru": 5396,
      "ferences": 5397,
      "Ġrepresentation": 5398,
      "Ġpret": 5399,
      "Ġeasier": 5400,
      "æĪ¿": 5401,
      "Ġfir": 5402,
      "semb": 5403,
      "Ġrecord": 5404,
      "iber": 5405,
      ".ä»İ": 5406,
      "Ġsituation": 5407,
      "èĪŀ": 5408,
      "ä½ĵçļĦ": 5409,
      ",åģ": 5410,
      "\\%": 5411,
      "Ġpref": 5412,
      "rew": 5413,
      "Ġeffective": 5414,
      "Ġpolynom": 5415,
      "Ġdescript": 5416,
      "Ġtown": 5417,
      "Ġpressure": 5418,
      "å¸ĮæľĽ": 5419,
      "çļĦä½ľåĵģ": 5420,
      "Ġfields": 5421,
      "Ġpractice": 5422,
      "æĬĺ": 5423,
      "Ġstructures": 5424,
      "levant": 5425,
      "Ġeveryone": 5426,
      "åı¶": 5427,
      "Ġfamilies": 5428,
      "ĠHis": 5429,
      "åĬ³": 5430,
      "æ½®": 5431,
      "Ġagre": 5432,
      "Ġbeyond": 5433,
      "_x": 5434,
      "ottom": 5435,
      "Ġreve": 5436,
      "}}}": 5437,
      "Ġtend": 5438,
      "Ġpresented": 5439,
      "ĠWeb": 5440,
      ")-": 5441,
      "tex": 5442,
      "ä»¥æĿ¥": 5443,
      "{(": 5444,
      "Ġaccom": 5445,
      "Ġprice": 5446,
      "{w": 5447,
      "çĽĸ": 5448,
      "è¯¾": 5449,
      "Ġvalid": 5450,
      "Ġloop": 5451,
      "ä¼ĺç§Ģ": 5452,
      "cy": 5453,
      "mp": 5454,
      "CC": 5455,
      "éĿĴå¹´": 5456,
      "é£Ł": 5457,
      "dered": 5458,
      ")^{": 5459,
      "dot": 5460,
      "ĠNote": 5461,
      "åı¤ä»£": 5462,
      "Ġåľ¨": 5463,
      "æ¬²": 5464,
      "åıªæĺ¯": 5465,
      "Ġimplies": 5466,
      "ç¬ĳ": 5467,
      "é¡º": 5468,
      "Ġtelevision": 5469,
      "Ġ&\\": 5470,
      "hspace": 5471,
      "Ġefforts": 5472,
      "AL": 5473,
      "ä¸Ģèµ·": 5474,
      "ĠMr": 5475,
      "åıĳæĮ¥": 5476,
      "qquad": 5477,
      "Ġimages": 5478,
      "ĠEq": 5479,
      "ç«ŀ": 5480,
      "èĥ¡": 5481,
      "Ġfinanc": 5482,
      "Ġcenter": 5483,
      "ung": 5484,
      "ĠComp": 5485,
      "With": 5486,
      "éģ¿": 5487,
      "-n": 5488,
      "Ġpiece": 5489,
      "Ġcoordin": 5490,
      "oud": 5491,
      "èĩªèº«": 5492,
      "Ġtradition": 5493,
      "æķĳ": 5494,
      "Ġprinci": 5495,
      "Ġsuff": 5496,
      "Ġbenefits": 5497,
      "Ġbur": 5498,
      "Ġpersonal": 5499,
      "å¼Ł": 5500,
      "Ġmetric": 5501,
      "è§Ĵåº¦": 5502,
      "```": 5503,
      "ocr": 5504,
      "ented": 5505,
      "Ġdesigned": 5506,
      "ropri": 5507,
      "anks": 5508,
      "tin": 5509,
      "Is": 5510,
      "Ġquantum": 5511,
      "è§īå¾Ĺ": 5512,
      "Ġclust": 5513,
      "ĠEnglish": 5514,
      "æĥħæĦŁ": 5515,
      "AM": 5516,
      ",-": 5517,
      "Ġdirection": 5518,
      "Ġlack": 5519,
      "åĬĽçļĦ": 5520,
      ",æ¸": 5521,
      "cale": 5522,
      "è¡Įä¸º": 5523,
      "Ġgoal": 5524,
      "stitute": 5525,
      "lam": 5526,
      "undred": 5527,
      "è¿ĲçĶ¨": 5528,
      "ä¸ĢçĽ´": 5529,
      "Ġengine": 5530,
      "ulinary": 5531,
      "Ġcentral": 5532,
      "Ġpick": 5533,
      "âĳ": 5534,
      "{K": 5535,
      "ä¸ĢèĪ¬": 5536,
      "const": 5537,
      "Ġtechniques": 5538,
      "Ġconsumers": 5539,
      "Ġdistin": 5540,
      "Ġgain": 5541,
      "æľīåħ³": 5542,
      "å¾ĹåĪ°": 5543,
      "estern": 5544,
      "Ġplatform": 5545,
      "æĽ¹": 5546,
      "åŃ©åŃĲ": 5547,
      "Ġconvers": 5548,
      "Ġut": 5549,
      "åıĤä¸İ": 5550,
      ",æŃ£": 5551,
      "ĠAfghan": 5552,
      "Ġerr": 5553,
      "Ġpack": 5554,
      "Ġmovement": 5555,
      "Ġleading": 5556,
      "Ġdenote": 5557,
      "Ġfoods": 5558,
      "iation": 5559,
      "æ·±åĪ»": 5560,
      "itect": 5561,
      "=\"": 5562,
      "è´¢": 5563,
      "ĠDav": 5564,
      "Ġlargest": 5565,
      "fig": 5566,
      "Ġusers": 5567,
      "éĴĪ": 5568,
      "\\}$": 5569,
      "rought": 5570,
      "éĻ¤äºĨ": 5571,
      "ĠRec": 5572,
      "{r": 5573,
      "Ġcomparison": 5574,
      "å¸®": 5575,
      "éģį": 5576,
      "Ġlevels": 5577,
      "ĠEven": 5578,
      "Ġconflic": 5579,
      "æł¹æį®": 5580,
      "ĠOur": 5581,
      "Ġevidence": 5582,
      "ĠSm": 5583,
      "Ġformula": 5584,
      "ä½ĵç³»": 5585,
      "Ġserious": 5586,
      "æ¢ģ": 5587,
      "ç§ĺ": 5588,
      "çļĦå¿ĥ": 5589,
      "Ġcapt": 5590,
      "åıįæĺł": 5591,
      "Ġmember": 5592,
      "ĠTV": 5593,
      "enge": 5594,
      "Ġplaces": 5595,
      "Ġvisit": 5596,
      "Ġdraw": 5597,
      "iar": 5598,
      "æĮī": 5599,
      ",çĶļèĩ³": 5600,
      "ä¿ĥ": 5601,
      ",n": 5602,
      "ĠMost": 5603,
      "{Ċ": 5604,
      "Ġmeat": 5605,
      "ĠÂ": 5606,
      "Ġstatic": 5607,
      "berg": 5608,
      "Ġunderstanding": 5609,
      "Ġobvious": 5610,
      "Ġindu": 5611,
      "Ġcounter": 5612,
      "aging": 5613,
      "Ġaspect": 5614,
      "Ġsteps": 5615,
      "ords": 5616,
      "Ġsemant": 5617,
      "ĠBar": 5618,
      "EN": 5619,
      "asons": 5620,
      "ī´": 5621,
      "Ġpolice": 5622,
      "ä¹ĥ": 5623,
      "oura": 5624,
      "Ġdomain": 5625,
      "ĠJu": 5626,
      "éģĵå¾·": 5627,
      "Ġlimited": 5628,
      "tered": 5629,
      ",æ²¡": 5630,
      "Ġtaste": 5631,
      "Ġheav": 5632,
      "Ġscience": 5633,
      "Re": 5634,
      "ĠCommun": 5635,
      "illi": 5636,
      "èĭ±åĽ½": 5637,
      "Ġforces": 5638,
      "Ġcoming": 5639,
      "kn": 5640,
      ",æĸ°": 5641,
      "ĠDepartment": 5642,
      "cos": 5643,
      "ĠSept": 5644,
      "åĩ¡": 5645,
      "Ġterror": 5646,
      "Ġoil": 5647,
      "çļĦæķħäºĭ": 5648,
      "Ñı": 5649,
      "Ġliter": 5650,
      "alled": 5651,
      "åħ³éĶ®": 5652,
      "aks": 5653,
      "Ġparallel": 5654,
      "ĠEast": 5655,
      "Ġadj": 5656,
      "è´«": 5657,
      "æĶ»": 5658,
      "......": 5659,
      "Ġcareer": 5660,
      "æį¢": 5661,
      "åĪ©çĶ¨": 5662,
      "Ġresponse": 5663,
      "Ġmark": 5664,
      "Ġdigital": 5665,
      "$)": 5666,
      "ç¬¬ä¸ī": 5667,
      "alse": 5668,
      "Ġbooks": 5669,
      "èŃ": 5670,
      "Ġpoor": 5671,
      "ĠEl": 5672,
      "é¦Ļæ¸¯": 5673,
      "Ġorganization": 5674,
      "Ġmor": 5675,
      "gs": 5676,
      "çļĨ": 5677,
      "add": 5678,
      "æľĭ": 5679,
      "è®Ń": 5680,
      "å°Ĭ": 5681,
      "}}_{": 5682,
      "ç»ĺçĶ»": 5683,
      "å¥¥": 5684,
      "ample": 5685,
      "Ġstay": 5686,
      "^+": 5687,
      "pril": 5688,
      "Ġvirt": 5689,
      "äºĭæĥħ": 5690,
      "Ġextra": 5691,
      "Ġeth": 5692,
      "Ġfresh": 5693,
      "ius": 5694,
      "{},": 5695,
      "Ġcollection": 5696,
      "script": 5697,
      "Ġchoose": 5698,
      "ç¿»è¯ĳ": 5699,
      "éĻį": 5700,
      ")}$": 5701,
      "åħħåĪĨ": 5702,
      "like": 5703,
      "éĩįå¤§": 5704,
      "{O": 5705,
      "Ġsurpr": 5706,
      "ĠMin": 5707,
      "è¿ĩåİ»": 5708,
      "Ġcomplexity": 5709,
      "Ġbrand": 5710,
      "åĩºçīĪç¤¾": 5711,
      "nam": 5712,
      "çº¯": 5713,
      "Ġminor": 5714,
      "æķ°åŃĹ": 5715,
      "æ¾": 5716,
      "è¡¥": 5717,
      "åºĦ": 5718,
      "Ġarguments": 5719,
      "ç«Ł": 5720,
      "iff": 5721,
      "Ġmix": 5722,
      "Ġbackground": 5723,
      "æļĹ": 5724,
      "ensive": 5725,
      "anger": 5726,
      "èĩ£": 5727,
      "Ġsyntax": 5728,
      "crete": 5729,
      "venue": 5730,
      "Ġprogrammer": 5731,
      "Ġdiv": 5732,
      "ĠWest": 5733,
      "ements": 5734,
      "ĠJune": 5735,
      "Ġearlier": 5736,
      "Ġcompletely": 5737,
      "_r": 5738,
      ",åĲĮæĹ¶": 5739,
      "Ġconnect": 5740,
      "Ġque": 5741,
      "oon": 5742,
      ",æ±": 5743,
      "åħ¬åħ±": 5744,
      "Ġcustomer": 5745,
      "}^\\": 5746,
      "Ġlove": 5747,
      "åİŁåĽł": 5748,
      "Ġframework": 5749,
      "neq": 5750,
      "{V": 5751,
      "Ġsociety": 5752,
      "Ġwrong": 5753,
      "ris": 5754,
      "tact": 5755,
      "Ġchefs": 5756,
      "Ġcreating": 5757,
      "go": 5758,
      "\\to": 5759,
      "æĪĳåĽ½": 5760,
      "æĭ¥": 5761,
      "Ġexpand": 5762,
      "ED": 5763,
      "tation": 5764,
      "Ġmessage": 5765,
      "Ġlost": 5766,
      "Ġnight": 5767,
      "clusion": 5768,
      "aker": 5769,
      "-or": 5770,
      "Ġpowerful": 5771,
      "Ġcand": 5772,
      "Ġconduct": 5773,
      "Ġgets": 5774,
      "Ġexisting": 5775,
      "osen": 5776,
      "äººçĶŁ": 5777,
      "ĠKore": 5778,
      "witter": 5779,
      "Ġlogic": 5780,
      "éī´": 5781,
      "æĶ¹åıĺ": 5782,
      "mult": 5783,
      "ster": 5784,
      "çº·": 5785,
      "Ġrepl": 5786,
      "Ġquickly": 5787,
      "æİ¥åıĹ": 5788,
      "¤åħ¶": 5789,
      "Ġalthough": 5790,
      "Ġremov": 5791,
      "Ġallowed": 5792,
      "Ġupon": 5793,
      "æııåĨĻ": 5794,
      "Ġvariety": 5795,
      "ĠOf": 5796,
      "Ġ#": 5797,
      "å¤©ä¸ĭ": 5798,
      "Ġ${": 5799,
      "æķĪæŀľ": 5800,
      "ç»ıåħ¸": 5801,
      "Ġnegative": 5802,
      "isions": 5803,
      "åĳĪçİ°": 5804,
      "Ġanti": 5805,
      "ĠInternational": 5806,
      "Ġreporter": 5807,
      ",æĭ": 5808,
      "Ġgeneration": 5809,
      "Ġwalk": 5810,
      "åħļçļĦ": 5811,
      "èľ": 5812,
      "å¹¶ä¸į": 5813,
      "è°ĥæŁ¥": 5814,
      "},Ċ": 5815,
      "çĿ£": 5816,
      "ĠCong": 5817,
      "Ġconstruction": 5818,
      "Ġtens": 5819,
      "used": 5820,
      "æĹ¶ä»£çļĦ": 5821,
      "ening": 5822,
      "check": 5823,
      "Ġpassed": 5824,
      "ifying": 5825,
      "ibly": 5826,
      "Ġcities": 5827,
      "ĠGl": 5828,
      ",åĿ": 5829,
      "roposition": 5830,
      "Ġrelation": 5831,
      "åħ¬ä¼Ĺ": 5832,
      "otes": 5833,
      "ĠBritish": 5834,
      "itz": 5835,
      "ĠHam": 5836,
      "Ġfavor": 5837,
      "åľ°ä½į": 5838,
      "ĠAg": 5839,
      "Ġunc": 5840,
      "Ġstarting": 5841,
      "Ġprogrammers": 5842,
      "(a": 5843,
      "éº": 5844,
      "æ³½": 5845,
      "ariant": 5846,
      "Ġinequality": 5847,
      "è°ĭ": 5848,
      "æĥĬ": 5849,
      "Ġdead": 5850,
      "å¼ĥ": 5851,
      "}|": 5852,
      "çĽ®åīį": 5853,
      "å¼±": 5854,
      "æĿ¥èĩª": 5855,
      "è¿ĺæľī": 5856,
      ",æ·±": 5857,
      "å¯¹è±¡": 5858,
      "{v": 5859,
      "iform": 5860,
      ".'": 5861,
      "Ġconsequ": 5862,
      "ogle": 5863,
      "Ġord": 5864,
      "Ġaren": 5865,
      "Ñĭ": 5866,
      "draw": 5867,
      "Ġcred": 5868,
      "light": 5869,
      "ĠOct": 5870,
      "cret": 5871,
      "æĭį": 5872,
      "oman": 5873,
      ",æŀ": 5874,
      "æľ±": 5875,
      "-r": 5876,
      ".å½ĵ": 5877,
      "Ġaffect": 5878,
      "Ġfeed": 5879,
      "-pro": 5880,
      "includegraphics": 5881,
      "ĠMod": 5882,
      "èª": 5883,
      "idents": 5884,
      "Ġleave": 5885,
      "éģŃ": 5886,
      "ource": 5887,
      ".æĪĳä»¬": 5888,
      "Ġmaterial": 5889,
      "(z": 5890,
      "Ġaim": 5891,
      "æł¸å¿ĥ": 5892,
      "Ġideas": 5893,
      ",èĩª": 5894,
      "Ġenj": 5895,
      "æİĮ": 5896,
      "Ġexecutive": 5897,
      "Ġexecution": 5898,
      "(\"": 5899,
      "ĠJust": 5900,
      "Ġfundament": 5901,
      "è¿ĳå¹³": 5902,
      "They": 5903,
      "Ġadminist": 5904,
      "ĠOther": 5905,
      "igen": 5906,
      "weet": 5907,
      "}}}}": 5908,
      "ctors": 5909,
      "åĽ¾ä¹¦": 5910,
      "åĲĥ": 5911,
      "Ġdin": 5912,
      "è¯ļ": 5913,
      "Ġopin": 5914,
      ".æŃ¤": 5915,
      "Ġsaw": 5916,
      "ä¸įåĲĮçļĦ": 5917,
      "oday": 5918,
      "olumn": 5919,
      "ä¹łè¿ĳå¹³": 5920,
      "Ġsaying": 5921,
      "ä¼ĺåĬ¿": 5922,
      "Ġcorrel": 5923,
      "æĹħ": 5924,
      "Ġworth": 5925,
      "}_\\": 5926,
      "Ġbrought": 5927,
      "ervice": 5928,
      "è¿ĩç¨ĭä¸Ń": 5929,
      "åĲİçļĦ": 5930,
      "äº§ä¸ļ": 5931,
      "fact": 5932,
      "èĶ": 5933,
      "reng": 5934,
      "Ġmer": 5935,
      "ä¸Ŀ": 5936,
      "ç»ĵæŀľ": 5937,
      "ĠAm": 5938,
      "Ġcitiz": 5939,
      "çĭ¬ç«ĭ": 5940,
      "è¶ĭ": 5941,
      "ĠPalest": 5942,
      "çĽ®çļĦ": 5943,
      "ĠCalif": 5944,
      "force": 5945,
      "äºİæĺ¯": 5946,
      "that": 5947,
      "æİ¨åĬ¨": 5948,
      "Ġproduction": 5949,
      "æĿĤå¿Ĺ": 5950,
      "Ġpure": 5951,
      "Ġhundred": 5952,
      "æĶ¿çŃĸ": 5953,
      "éĩĮçļĦ": 5954,
      "ç»ĥ": 5955,
      "èĸ": 5956,
      "çİ°è±¡": 5957,
      "Ġhor": 5958,
      "ĠBro": 5959,
      "\\item": 5960,
      "æ·±åº¦": 5961,
      "åŃ¤": 5962,
      "enced": 5963,
      "Ġstudies": 5964,
      "çģ¾": 5965,
      "ingu": 5966,
      "More": 5967,
      "è¿Ľä¸ĢæŃ¥": 5968,
      "ucle": 5969,
      "é»ĺ": 5970,
      "Ġassist": 5971,
      "æīĢè°ĵ": 5972,
      "åĽ½åĨħ": 5973,
      "Ġperfect": 5974,
      "éĢĶ": 5975,
      "Ġofficials": 5976,
      "æ·¡": 5977,
      "Ġsound": 5978,
      "æĤŁ": 5979,
      "æ²Ļ": 5980,
      "è®°å½ķ": 5981,
      "Ġthroughout": 5982,
      "iences": 5983,
      "åĿĩ": 5984,
      "Ġdescribe": 5985,
      "Ġvol": 5986,
      "Ġsurvey": 5987,
      "Ġincreased": 5988,
      "ÐµÐ": 5989,
      "key": 5990,
      "uary": 5991,
      "Ġnetworks": 5992,
      "arian": 5993,
      "çĶŁåĬ¨": 5994,
      "Ġbillion": 5995,
      "åĲĹ": 5996,
      ",è¿Ļæĺ¯": 5997,
      "æķ¬": 5998,
      "Ġunion": 5999,
      ",è¢«": 6000,
      "åģı": 6001,
      "rary": 6002,
      "Ġsetting": 6003,
      "åı³": 6004,
      "ĠII": 6005,
      "ĠAug": 6006,
      "ocol": 6007,
      "è¿İ": 6008,
      "centering": 6009,
      "$$Ċ": 6010,
      "itable": 6011,
      "}\\,": 6012,
      "åŃ¦èĢħ": 6013,
      "uration": 6014,
      "ĠIm": 6015,
      "ä¹ĭä¸Ń": 6016,
      ".com": 6017,
      "Ġensure": 6018,
      "åĭĩ": 6019,
      "Ġperhaps": 6020,
      "æĿ¿": 6021,
      "Ġrepe": 6022,
      "Ġsufficient": 6023,
      "Ġdynamic": 6024,
      "è®¾è®¡": 6025,
      "reen": 6026,
      "å½¢æĢģ": 6027,
      "{proof": 6028,
      "ext": 6029,
      "Ġconclud": 6030,
      "ĠSyria": 6031,
      "Ġgen": 6032,
      "çıŃ": 6033,
      "åĶ±": 6034,
      "Ġnames": 6035,
      "elt": 6036,
      "ç©¿": 6037,
      "è§£åĨ³": 6038,
      "ĠInt": 6039,
      "Ġcategory": 6040,
      "}),": 6041,
      "Ġnature": 6042,
      ",å½¢": 6043,
      "wards": 6044,
      "ĠMarch": 6045,
      "Ġmechanism": 6046,
      "-point": 6047,
      "center": 6048,
      "ä¼łç»ŁåªĴä½ĵ": 6049,
      "Ġâ": 6050,
      "gence": 6051,
      "Ġtruth": 6052,
      "lant": 6053,
      "Ġimplemented": 6054,
      "Ġappropri": 6055,
      "ĠApril": 6056,
      "norm": 6057,
      "Ġpretty": 6058,
      "Ġign": 6059,
      "anguage": 6060,
      "rr": 6061,
      "Ġclearly": 6062,
      "Ġfire": 6063,
      "æĻĭ": 6064,
      "Ġupper": 6065,
      "Ġstack": 6066,
      "æľĭåıĭ": 6067,
      "Ġserve": 6068,
      "Ġvideo": 6069,
      "ä¸įè¿ĩ": 6070,
      "éĺµ": 6071,
      "æĽ°": 6072,
      ".A": 6073,
      "è¸": 6074,
      "é¡µ": 6075,
      "æŁĵ": 6076,
      "ä»ĭç»į": 6077,
      "Ġbeginning": 6078,
      "å¹»": 6079,
      "Ġweb": 6080,
      "Ġ${{\\": 6081,
      "çŀ": 6082,
      "è¿ģ": 6083,
      "èµĦæĸĻ": 6084,
      "å³°": 6085,
      "AC": 6086,
      "known": 6087,
      "ĠProgramming": 6088,
      "Ġmother": 6089,
      "ulated": 6090,
      "}]": 6091,
      "ought": 6092,
      "utr": 6093,
      "Ġspin": 6094,
      "-wage": 6095,
      "åºĵ": 6096,
      "ago": 6097,
      "åĳ¼": 6098,
      "ç¨ĭåº¦": 6099,
      "åºĨ": 6100,
      "ĠPublic": 6101,
      "ads": 6102,
      "Ġ_": 6103,
      "Ġadop": 6104,
      "Ġactual": 6105,
      "Ġdomin": 6106,
      "æī¹è¯Ħ": 6107,
      "Ġadding": 6108,
      "resents": 6109,
      "map": 6110,
      "éĥ¨éĹ¨": 6111,
      "Ġcause": 6112,
      ",æł": 6113,
      "Ġstra": 6114,
      "actions": 6115,
      "å¤§éĩı": 6116,
      "åģ¥": 6117,
      "å±±æ°´": 6118,
      "_d": 6119,
      "è´¯": 6120,
      ",æ³": 6121,
      "çļĦåĨħå®¹": 6122,
      "Ġchallenge": 6123,
      "---": 6124,
      "iction": 6125,
      "æıĲåįĩ": 6126,
      "Ġlaws": 6127,
      "Ġtru": 6128,
      "\")": 6129,
      "Ġbody": 6130,
      "Ġdecades": 6131,
      "æ¶ī": 6132,
      "Ġreduce": 6133,
      "king": 6134,
      "Ġattribut": 6135,
      "point": 6136,
      "Ġconnected": 6137,
      "Ġgradu": 6138,
      "stream": 6139,
      "Ġwave": 6140,
      "Ġphysical": 6141,
      "Ġtypically": 6142,
      "ooth": 6143,
      "Ġreading": 6144,
      "å¤§ä¼Ĺ": 6145,
      "Ġinterested": 6146,
      "åĬªåĬĽ": 6147,
      "å¿ĺ": 6148,
      "Ġreasons": 6149,
      "æ³¨æĦı": 6150,
      "SS": 6151,
      "æľªæĿ¥": 6152,
      "çĽ®æłĩ": 6153,
      "ores": 6154,
      ",å¦Ĥæŀľ": 6155,
      "éĤ£ä¹Ī": 6156,
      "Ġsquare": 6157,
      "ĠResearch": 6158,
      "Ġboundary": 6159,
      "usion": 6160,
      "appro": 6161,
      "Ġscient": 6162,
      "Ġclean": 6163,
      ",å¹¿": 6164,
      "top": 6165,
      "ado": 6166,
      "åħ¼": 6167,
      "estaurant": 6168,
      "Ġdetermine": 6169,
      "Ġple": 6170,
      ",éĢļè¿ĩ": 6171,
      "ham": 6172,
      "Ġthinking": 6173,
      "ML": 6174,
      "æ¢ħ": 6175,
      "Ġlearned": 6176,
      "tical": 6177,
      "æļ´": 6178,
      "Ġmob": 6179,
      "Ġconstraints": 6180,
      "Ġrecomm": 6181,
      "Ġseparate": 6182,
      "Ġestablish": 6183,
      "Ġembedd": 6184,
      "æīįèĥ½": 6185,
      "ĠMany": 6186,
      "Ġsubset": 6187,
      "Ġoverall": 6188,
      "Ġarbit": 6189,
      "Ġformal": 6190,
      "\\mathcal": 6191,
      "åĸľæ¬¢": 6192,
      "ä¿Ħ": 6193,
      "Ġcomputation": 6194,
      ",æ¯Ķ": 6195,
      "stead": 6196,
      "Ġillustr": 6197,
      "ç»ıè¿ĩ": 6198,
      "atory": 6199,
      "ç£": 6200,
      "Ġgas": 6201,
      "Ġfully": 6202,
      "ont": 6203,
      "Ġveget": 6204,
      "Ġmoved": 6205,
      "Ġrise": 6206,
      "çĶŁæ´»çļĦ": 6207,
      "Ġfollowed": 6208,
      "çħ": 6209,
      "Ġdiscussed": 6210,
      "æĸ¹åĲĳ": 6211,
      "Ġproduced": 6212,
      "Ġ(\\[": 6213,
      "ĠIran": 6214,
      "Ġdimension": 6215,
      "{}.": 6216,
      "Ġoccup": 6217,
      "ructions": 6218,
      "Ġcomments": 6219,
      ",åĬł": 6220,
      "Ġhuge": 6221,
      "Ġarchitect": 6222,
      "ography": 6223,
      "iring": 6224,
      ",åĪĻ": 6225,
      "æĮĩåĩº": 6226,
      "æĮĳ": 6227,
      ".ä¸Ģ": 6228,
      "Ġsolve": 6229,
      ",åĨĻ": 6230,
      "éľĢæ±Ĥ": 6231,
      "df": 6232,
      "Ġsus": 6233,
      "Ġcoe": 6234,
      "å®ĮæĪĲ": 6235,
      "å·¥ä½ľèĢħ": 6236,
      "ners": 6237,
      ",åıį": 6238,
      "&=": 6239,
      "è²": 6240,
      "Ġthousands": 6241,
      "Ġheld": 6242,
      "Ġnoted": 6243,
      "ç§ģ": 6244,
      "æķĻæİĪ": 6245,
      "Ġsites": 6246,
      "ened": 6247,
      "Ġgeomet": 6248,
      "unk": 6249,
      "æĸ°éĹ»çļĦ": 6250,
      "//": 6251,
      "Ġrepresents": 6252,
      "ç¨³": 6253,
      "Ġrepresented": 6254,
      "ĠJuly": 6255,
      ",b": 6256,
      "roc": 6257,
      "Ġpaid": 6258,
      "Ġhighly": 6259,
      "Ġstreng": 6260,
      "ornia": 6261,
      "åįģåĪĨ": 6262,
      "Ġ{{\\": 6263,
      "ç»ª": 6264,
      "æĶ¯æĮģ": 6265,
      "èķ": 6266,
      "çĲĨæĥ³": 6267,
      "equiv": 6268,
      "-L": 6269,
      "å±Ĭ": 6270,
      "Ġcup": 6271,
      "åħħæ»¡": 6272,
      "Ġerrors": 6273,
      "Ġspread": 6274,
      "Ġdisp": 6275,
      "Ġopened": 6276,
      ",å¾Ī": 6277,
      "Ġdatas": 6278,
      "Ġsoon": 6279,
      "Cl": 6280,
      "Ġfinancial": 6281,
      "While": 6282,
      "Ġhar": 6283,
      ",k": 6284,
      "åľ¨äºİ": 6285,
      "ç®Ģåįķ": 6286,
      "éŁ©": 6287,
      "abular": 6288,
      "sin": 6289,
      "å®¹æĺĵ": 6290,
      "æĢ¥": 6291,
      "ulate": 6292,
      "arant": 6293,
      "Ġdecre": 6294,
      "Ġmaximum": 6295,
      "onds": 6296,
      "Pi": 6297,
      "åªĴä½ĵèŀįåĲĪ": 6298,
      "acebook": 6299,
      "Ġrank": 6300,
      "æıĲåĩº": 6301,
      "Ġbal": 6302,
      "æĪĳä»¬çļĦ": 6303,
      "éª¨": 6304,
      "Ġprogress": 6305,
      "itely": 6306,
      "Ġey": 6307,
      "Ġ**": 6308,
      "Ġrob": 6309,
      "èŃ¦": 6310,
      "ĠSan": 6311,
      "è¿·": 6312,
      "åħ¶ä¸Ń": 6313,
      "éļıçĿĢ": 6314,
      "Ġspent": 6315,
      "Ġproviding": 6316,
      "Ġcontract": 6317,
      "Ġvolume": 6318,
      "Ġhon": 6319,
      "Ġstrugg": 6320,
      "iments": 6321,
      "Ġegg": 6322,
      "æľīäºĨ": 6323,
      "ä»ĸä»¬çļĦ": 6324,
      "ira": 6325,
      "...Ċ": 6326,
      "å¼ºè°ĥ": 6327,
      "å¥Ĺ": 6328,
      "mercial": 6329,
      "Psi": 6330,
      "come": 6331,
      "Ġcele": 6332,
      "Ġconserv": 6333,
      "Ġinfluence": 6334,
      "Ġpages": 6335,
      "ĠWork": 6336,
      "Ġmiddle": 6337,
      "èĻĳ": 6338,
      "ĠStud": 6339,
      "ey": 6340,
      "Ġprocesses": 6341,
      "fer": 6342,
      "æıĲé«ĺ": 6343,
      "_f": 6344,
      "æĪĲå°±": 6345,
      "Ġhosp": 6346,
      "Ġlocation": 6347,
      "Ġreceived": 6348,
      "Ġmajority": 6349,
      "room": 6350,
      "èĢĮè¨Ģ": 6351,
      "akers": 6352,
      "Ġsuccessful": 6353,
      "åģľ": 6354,
      "Ġslight": 6355,
      "Ġafford": 6356,
      "Ġcollect": 6357,
      "Ġrelevant": 6358,
      "æµĭ": 6359,
      "åį¡": 6360,
      "Ġrates": 6361,
      "æ´ĭ": 6362,
      "-up": 6363,
      "éĢĢ": 6364,
      "wedge": 6365,
      "outhern": 6366,
      "scr": 6367,
      "Ġoffers": 6368,
      "Ġenjoy": 6369,
      "è¡£": 6370,
      "ĠAfrica": 6371,
      "Ġmeal": 6372,
      "Ġevolution": 6373,
      "åŃ¦æľ¯": 6374,
      "ä»¤äºº": 6375,
      "zz": 6376,
      "\"ä¸ī": 6377,
      "ounded": 6378,
      "ĠStreet": 6379,
      "hel": 6380,
      "éĺ´": 6381,
      ",æĪĲä¸º": 6382,
      "åĨ·": 6383,
      "æĿŁ": 6384,
      "uit": 6385,
      "omorphism": 6386,
      "çļĦæĸ°": 6387,
      "ĠInstitute": 6388,
      "Ġreb": 6389,
      ",æİ¨": 6390,
      "Ġstudent": 6391,
      ")+": 6392,
      "è°¢": 6393,
      "æľºåĪ¶": 6394,
      "åĢĴ": 6395,
      "Sh": 6396,
      "_l": 6397,
      "éĺ¶æ®µ": 6398,
      "Ġcertainly": 6399,
      "çļĦéĹ®é¢ĺ": 6400,
      "åŃĶ": 6401,
      "ĠAssociation": 6402,
      "Ġir": 6403,
      "hest": 6404,
      ",åĨį": 6405,
      "cles": 6406,
      "é¸Ł": 6407,
      "ç½ª": 6408,
      "Ġbinary": 6409,
      "ategor": 6410,
      "æĿ¥è¶Ĭ": 6411,
      "Ġflu": 6412,
      "new": 6413,
      ",åªĴ": 6414,
      "å£®": 6415,
      "Ġspectrum": 6416,
      "Here": 6417,
      "\\big": 6418,
      "Ġderiv": 6419,
      "ĠEm": 6420,
      "Ġstorm": 6421,
      "BS": 6422,
      "åĨ³å®ļ": 6423,
      "å¿ł": 6424,
      "æĢķ": 6425,
      "åħ·ä½ĵ": 6426,
      "éķĩ": 6427,
      "è¶ĬæĿ¥è¶Ĭ": 6428,
      "\\caption": 6429,
      "DE": 6430,
      "è²Į": 6431,
      "éĩįçĤ¹": 6432,
      "ett": 6433,
      "Ġcandid": 6434,
      "Ġtro": 6435,
      "çĭ¬çī¹": 6436,
      "Ġsauce": 6437,
      "ĠGener": 6438,
      "ç»Łä¸Ģ": 6439,
      "å®¢è§Ĥ": 6440,
      ",å¼Ģ": 6441,
      "Ġhelped": 6442,
      "çĩ": 6443,
      ",åĽłæŃ¤": 6444,
      "æģ©": 6445,
      "çļĦèīºæľ¯": 6446,
      "nce": 6447,
      "çģŃ": 6448,
      "}}^": 6449,
      "ĠDef": 6450,
      "æĬ¥åĳĬ": 6451,
      "ç»¼": 6452,
      "åĿĹ": 6453,
      "Note": 6454,
      "æĸĩåĮĸçļĦ": 6455,
      "Ġtrade": 6456,
      "\"ä¸ŃåĽ½": 6457,
      ",åĳ": 6458,
      "iles": 6459,
      "(A": 6460,
      "Ġfederal": 6461,
      "Ġmagazine": 6462,
      "faces": 6463,
      "Ġbuy": 6464,
      "Ġforward": 6465,
      "En": 6466,
      "Ġfactors": 6467,
      "apter": 6468,
      "Ġvertex": 6469,
      "æķĮ": 6470,
      "å¤ĦçĲĨ": 6471,
      "è¯´æĺİ": 6472,
      "èĦĳ": 6473,
      "\"ä¸º": 6474,
      "Ġimplic": 6475,
      "ellig": 6476,
      "ĠCalifornia": 6477,
      "ĠAust": 6478,
      "ĠSal": 6479,
      "ä»ģ": 6480,
      "{h": 6481,
      "ĠArab": 6482,
      "Ġnodes": 6483,
      "ä¿ĿæĬ¤": 6484,
      "ĠDem": 6485,
      "Ġdetermined": 6486,
      "Ġdepends": 6487,
      "è¿«": 6488,
      "çī¹å¾ģ": 6489,
      "Ġlif": 6490,
      "çĶŁæĢģ": 6491,
      "ä¼Ĭ": 6492,
      "Ġpurpose": 6493,
      "ä½³": 6494,
      "Ġsust": 6495,
      "Ġrespond": 6496,
      "Ġfinding": 6497,
      "rely": 6498,
      "ĠComput": 6499,
      "çıį": 6500,
      "Ġmodule": 6501,
      "Ġstation": 6502,
      "åĵ²åŃ¦": 6503,
      "Ġnamed": 6504,
      "{y": 6505,
      "Ġscen": 6506,
      "æľ¬èº«": 6507,
      "Ġes": 6508,
      "Ġvertices": 6509,
      "\\\\": 6510,
      "Ġextrem": 6511,
      "ĠSeptember": 6512,
      "Ġforms": 6513,
      "æĪĸèĢħ": 6514,
      "Ġgal": 6515,
      "-dimensional": 6516,
      "ĠPhil": 6517,
      "gar": 6518,
      "Ġactions": 6519,
      "Ġculinary": 6520,
      "att": 6521,
      "åĽ½çļĦ": 6522,
      "Ġtrack": 6523,
      "æķ¢": 6524,
      "Ġestimate": 6525,
      "Ġchanging": 6526,
      "Ġcolor": 6527,
      "Ġcam": 6528,
      ",ä¸Ģä¸ª": 6529,
      "ilarly": 6530,
      "Ġtalking": 6531,
      "æķ£æĸĩ": 6532,
      "(y": 6533,
      ".åĽłæŃ¤": 6534,
      "omic": 6535,
      "æľīäºº": 6536,
      "å´ĩ": 6537,
      "éŃĤ": 6538,
      "æ¶µ": 6539,
      "Ġrelatively": 6540,
      "Ġintroduce": 6541,
      "Ġalloc": 6542,
      "}^{(": 6543,
      "Ġfiles": 6544,
      "æ¯ķ": 6545,
      "erve": 6546,
      "Ġimper": 6547,
      "æ¶Īæģ¯": 6548,
      "-old": 6549,
      "term": 6550,
      "Ġbox": 6551,
      "Ġadvantage": 6552,
      "ä¹ĭéĹ´çļĦ": 6553,
      "Ġshared": 6554,
      "Ġachieve": 6555,
      "è¿ĻéĩĮ": 6556,
      "ĠMich": 6557,
      "li": 6558,
      "position": 6559,
      "izza": 6560,
      "Ġheart": 6561,
      "è§Ĥå¿µ": 6562,
      "ä¸Ģæ¬¡": 6563,
      "è¿Ļæĺ¯": 6564,
      "ograp": 6565,
      "Ġformat": 6566,
      "çĪ¶äº²": 6567,
      "Ġcurve": 6568,
      "åĢ¾": 6569,
      "ĠCongress": 6570,
      ",ä¸Ń": 6571,
      "ĠInter": 6572,
      "éĵģ": 6573,
      "ĠChic": 6574,
      "æłı": 6575,
      "Ġresulting": 6576,
      "Ġleads": 6577,
      "Ġpropag": 6578,
      "Ġult": 6579,
      "ĠDavid": 6580,
      "****": 6581,
      "Ġsalt": 6582,
      "èĭ±éĽĦ": 6583,
      "Ġunivers": 6584,
      "çºµ": 6585,
      "ä¸ŃåĽ½çļĦ": 6586,
      "rief": 6587,
      "åŃ¦çĶŁ": 6588,
      "subseteq": 6589,
      "Ġconcent": 6590,
      "âĪĴ": 6591,
      "Ġreflect": 6592,
      "Ġrecurs": 6593,
      "è¾Ľ": 6594,
      "Ġpapers": 6595,
      "åĲ¸å¼ķ": 6596,
      "down": 6597,
      "ĠFrance": 6598,
      "èŀįåªĴä½ĵ": 6599,
      "Ġstar": 6600,
      "Ġchicken": 6601,
      "ç§°ä¸º": 6602,
      "ĠBecause": 6603,
      "è¡ĮåĬ¨": 6604,
      "åĪ¶ä½ľ": 6605,
      "Ġtre": 6606,
      "Ġarticles": 6607,
      "ĠReport": 6608,
      "Ã¡": 6609,
      "Ġoutlets": 6610,
      "è´¨éĩı": 6611,
      "Ġneighborhood": 6612,
      "ste": 6613,
      "ç«ŀäºī": 6614,
      "Ġadap": 6615,
      "æłĩåĩĨ": 6616,
      "Ġanyone": 6617,
      "æ®Ĭ": 6618,
      "ĠÐ¿": 6619,
      "ÑĮ": 6620,
      "å²Ľ": 6621,
      "Ġconven": 6622,
      "agn": 6623,
      "Ġhit": 6624,
      "Ġcommunities": 6625,
      "äººæīį": 6626,
      "Ġ$\\{": 6627,
      "Ġsafety": 6628,
      "ĠTrans": 6629,
      "Ġencoura": 6630,
      "æķ´ä¸ª": 6631,
      "{u": 6632,
      "Ġgenerate": 6633,
      "Ġsw": 6634,
      "ĠCook": 6635,
      "Ġded": 6636,
      "Ġrelative": 6637,
      "èĩªæĪĳ": 6638,
      "Ġcurrently": 6639,
      "eloc": 6640,
      "iable": 6641,
      "Script": 6642,
      "åĬŁèĥ½": 6643,
      "Ġcommand": 6644,
      "Ġrelig": 6645,
      "æľīçĿĢ": 6646,
      "ç¤¾ä¼ļä¸»ä¹ī": 6647,
      "æĭ¿": 6648,
      "isc": 6649,
      ".\"ĊĊ": 6650,
      "éĴŁ": 6651,
      "Or": 6652,
      "èªī": 6653,
      "Ġbottom": 6654,
      "Ġvict": 6655,
      "èģĶç³»": 6656,
      "åįķä½į": 6657,
      "Ġsustain": 6658,
      "åħ¶å®ŀ": 6659,
      "arr": 6660,
      "Ġcontrast": 6661,
      "ĠJews": 6662,
      "Ġcritic": 6663,
      "çļĦå½±åĵį": 6664,
      "agger": 6665,
      "Ġmanager": 6666,
      "iew": 6667,
      ",å»": 6668,
      "Ġsignal": 6669,
      "é²ģè¿ħ": 6670,
      "ĠAng": 6671,
      "Ġexpon": 6672,
      "-P": 6673,
      "æ°ĳéĹ´": 6674,
      "ipment": 6675,
      "ĠMoreover": 6676,
      "å£°éŁ³": 6677,
      "ç¾İæľ¯": 6678,
      "Ġdecided": 6679,
      "-sp": 6680,
      "Ġhyp": 6681,
      "Ġlayer": 6682,
      ",æĻ": 6683,
      "cil": 6684,
      "çĦ¦": 6685,
      "Ġstop": 6686,
      "è°·": 6687,
      "Ġconfig": 6688,
      "ç¼ĺ": 6689,
      "Ġhol": 6690,
      "å¤įæĿĤ": 6691,
      "æŀ¶": 6692,
      "æĳĦå½±": 6693,
      "Ġwasn": 6694,
      "å¹¿æ³Ľ": 6695,
      "Ġdouble": 6696,
      "erc": 6697,
      "]\\": 6698,
      "Ġelectron": 6699,
      "çļĦè¯Ŀ": 6700,
      ",è¿ĻäºĽ": 6701,
      "çļĦçĶŁæ´»": 6702,
      "ken": 6703,
      "oly": 6704,
      "Ġä¸Ģ": 6705,
      "Ġwatch": 6706,
      "è¯º": 6707,
      "ĠDo": 6708,
      "ĠBr": 6709,
      "èĽ": 6710,
      "é¼ĵ": 6711,
      ",çĶ±": 6712,
      "iday": 6713,
      "Ġwin": 6714,
      "eks": 6715,
      "Ġwide": 6716,
      "Since": 6717,
      "ags": 6718,
      "Ġstream": 6719,
      "Ġfloating": 6720,
      "èĤ¯": 6721,
      "rivial": 6722,
      "tering": 6723,
      "æĻºæħ§": 6724,
      "Int": 6725,
      "æī©": 6726,
      "è§Ī": 6727,
      "ovember": 6728,
      "value": 6729,
      "Ġwebsite": 6730,
      ".[": 6731,
      "ocracy": 6732,
      "Ġprocedure": 6733,
      "å®īåħ¨": 6734,
      "Ġheat": 6735,
      "äºĨä¸Ģä¸ª": 6736,
      "Ġarriv": 6737,
      "%Ċ": 6738,
      "Ġpush": 6739,
      "However": 6740,
      "Ġassemb": 6741,
      "ĠSat": 6742,
      "Ġhence": 6743,
      "ondon": 6744,
      "Ġopportunity": 6745,
      "Ġleaders": 6746,
      "Ġannoun": 6747,
      "æ´Ľ": 6748,
      "Ġ{#": 6749,
      "Ġpolynomial": 6750,
      "ĠFurther": 6751,
      "ç»§ç»Ń": 6752,
      "Ġoperating": 6753,
      "Ġmoving": 6754,
      "Ġimag": 6755,
      "æŃ£æĺ¯": 6756,
      ".(": 6757,
      "Ġfaster": 6758,
      "Ġhur": 6759,
      "ĠTable": 6760,
      "å¾Ħ": 6761,
      "Ġoptimal": 6762,
      "Ġuniform": 6763,
      "Ġguarant": 6764,
      "Ġcharg": 6765,
      "Ġcompute": 6766,
      "List": 6767,
      "è®¨è®º": 6768,
      "Ġmid": 6769,
      "ĠBo": 6770,
      "star": 6771,
      "\\geq": 6772,
      "æĩĤ": 6773,
      "Be": 6774,
      "Ġminutes": 6775,
      "Ġattacks": 6776,
      "Ġtests": 6777,
      "PS": 6778,
      "uper": 6779,
      "Ġsn": 6780,
      "æĿ°": 6781,
      "Ġgrad": 6782,
      "æĬ¥ä¸ļ": 6783,
      "çĦ¶åĲİ": 6784,
      "æĪĲç«ĭ": 6785,
      "Ġinstit": 6786,
      "çļĦæĦŁ": 6787,
      ",æ²¡æľī": 6788,
      "ĠSmith": 6789,
      "Ġstraight": 6790,
      "èĦļ": 6791,
      "ĠFound": 6792,
      "åĲī": 6793,
      "å¼ĢæĶ¾": 6794,
      "Ġturned": 6795,
      "deed": 6796,
      "pid": 6797,
      "åĮ»": 6798,
      "ĠAlthough": 6799,
      "ĠGoogle": 6800,
      "å¾Ĳ": 6801,
      "Ġedges": 6802,
      "urg": 6803,
      "-the": 6804,
      "cit": 6805,
      "åİŁåĪĻ": 6806,
      "ä¸»æĮģ": 6807,
      "ĠHence": 6808,
      ",åĨħ": 6809,
      "ĠJanuary": 6810,
      "ĠWhite": 6811,
      "éĿ¢çļĦ": 6812,
      "ael": 6813,
      "æĴ°": 6814,
      "ä¹ĭåīį": 6815,
      "enior": 6816,
      "é¢ĺæĿĲ": 6817,
      "{tabular": 6818,
      "Ġdepart": 6819,
      "ĠPeople": 6820,
      "Ġsupported": 6821,
      "Ġexpressions": 6822,
      "ç«¹": 6823,
      "bo": 6824,
      "å¯Ĵ": 6825,
      "Ġconsistent": 6826,
      "load": 6827,
      "Ġveloc": 6828,
      "ä»¥åĲİ": 6829,
      "ilton": 6830,
      "uel": 6831,
      "Ġaudience": 6832,
      "ĠMor": 6833,
      "éĩįè§Ĩ": 6834,
      "stant": 6835,
      "ä¾ĭå¦Ĥ": 6836,
      "eech": 6837,
      "æİ¢ç´¢": 6838,
      "_a": 6839,
      "ĠTur": 6840,
      "den": 6841,
      "åŃĲçļĦ": 6842,
      ",åħ¨": 6843,
      "From": 6844,
      "Ġspend": 6845,
      "mathscr": 6846,
      "Ġchains": 6847,
      "Ġattract": 6848,
      "Ġcris": 6849,
      "æłĩé¢ĺ": 6850,
      "\\,\\": 6851,
      "Ġauth": 6852,
      "Ġinternal": 6853,
      "Ġmentioned": 6854,
      "Ġprepar": 6855,
      "ĠChicago": 6856,
      "é«ĺåº¦": 6857,
      "Ð¸Ð": 6858,
      "Ġreduced": 6859,
      "ĠĠĠĠĠĠĠĠĠĠ": 6860,
      "Ġfundamental": 6861,
      "}+\\": 6862,
      "èģĮä¸ļ": 6863,
      ",åħ¶ä¸Ń": 6864,
      "Ġ_{": 6865,
      "linear": 6866,
      "èĳĹä½ľ": 6867,
      "Ġotherwise": 6868,
      "ĠEuropean": 6869,
      "è´¡": 6870,
      "æĢİä¹Ī": 6871,
      "å®¶çļĦ": 6872,
      "(-": 6873,
      "(f": 6874,
      "Ġcalories": 6875,
      "Ġadvertising": 6876,
      "Ġfranchise": 6877,
      "Ġserving": 6878,
      ".å®ĥ": 6879,
      "Ġinnov": 6880,
      "anish": 6881,
      "Ġgiving": 6882,
      "Ġshape": 6883,
      "ana": 6884,
      "åıĳè¡Į": 6885,
      "ä¿ĿæĮģ": 6886,
      "iented": 6887,
      "æīĭæ®µ": 6888,
      "è·¨": 6889,
      "å¥ı": 6890,
      "ç§»åĬ¨": 6891,
      "Ġrecipe": 6892,
      "display": 6893,
      "ä¹ı": 6894,
      "Ġabstract": 6895,
      "åĪ°çļĦ": 6896,
      "ession": 6897,
      "éĽ·": 6898,
      "(G": 6899,
      ",åĲİ": 6900,
      "åĨĮ": 6901,
      "Ġcompl": 6902,
      "overty": 6903,
      "\"å¤§": 6904,
      "Ġlegal": 6905,
      "LL": 6906,
      "å®½": 6907,
      "Ġstuff": 6908,
      "è§Ĥå¯Ł": 6909,
      "Ġappears": 6910,
      "iency": 6911,
      "Ob": 6912,
      "Ġnucle": 6913,
      "æ¡¥": 6914,
      "åĪ©çĽĬ": 6915,
      "aught": 6916,
      "Ġconsumer": 6917,
      "ĠIslam": 6918,
      "Ġcrisis": 6919,
      "Ġchallenges": 6920,
      "ç»ķ": 6921,
      "IM": 6922,
      "ĠSupp": 6923,
      "Ġgave": 6924,
      "ç¦ģ": 6925,
      "{Q": 6926,
      "Ġcompare": 6927,
      "æ¨ª": 6928,
      "Ġtal": 6929,
      "ĠJewish": 6930,
      "apping": 6931,
      "Ġcontinuous": 6932,
      "Ġdetect": 6933,
      "Ġfraction": 6934,
      "Ġratio": 6935,
      "å¹´è½»": 6936,
      "ĠJournalism": 6937,
      "ĠSchool": 6938,
      "atically": 6939,
      "Ġoptions": 6940,
      "Ġoptimization": 6941,
      "Ġexception": 6942,
      "Ġfriends": 6943,
      "èĪ¹": 6944,
      "Ġimmediately": 6945,
      "Ġrow": 6946,
      "ĠHol": 6947,
      "åĶ¯": 6948,
      "çĽ¾": 6949,
      "(p": 6950,
      "gen": 6951,
      "_h": 6952,
      "éĨĴ": 6953,
      "Ġdescription": 6954,
      "Ġprevent": 6955,
      "èµĦè®¯": 6956,
      "Ġdoub": 6957,
      "mark": 6958,
      "Ġcovered": 6959,
      "Ġpresence": 6960,
      "ĠWhy": 6961,
      "ç»¿": 6962,
      "çļĦç¤¾ä¼ļ": 6963,
      "\"åľ¨": 6964,
      "éĥ½æľī": 6965,
      "æĬ¥åĪĬ": 6966,
      "ç»ıèĲ¥": 6967,
      "All": 6968,
      "Ġ$|": 6969,
      "Ġload": 6970,
      "ç´¯": 6971,
      "rier": 6972,
      "æ±ĩ": 6973,
      ",å¼ķ": 6974,
      "Ġmill": 6975,
      "æľŁéĹ´": 6976,
      "Ġofficial": 6977,
      "opl": 6978,
      "å®¶åºŃ": 6979,
      "Of": 6980,
      "Ġdrink": 6981,
      "Ġmut": 6982,
      "æĢĿç»´": 6983,
      "Ġfine": 6984,
      "æł¹æľ¬": 6985,
      "Ġjud": 6986,
      "äº¿": 6987,
      "uracy": 6988,
      "Ġprepared": 6989,
      "ĠRestaurant": 6990,
      "raft": 6991,
      "å¼ķå¯¼": 6992,
      "Ġdisplay": 6993,
      "é¡¿": 6994,
      ")}{": 6995,
      "ç©·": 6996,
      "Ġeating": 6997,
      "Ġtesting": 6998,
      "rying": 6999,
      "åĪ·": 7000,
      "{l": 7001,
      "ä¹¦åĨĻ": 7002,
      "å¸¦æĿ¥": 7003,
      "Ġidentity": 7004,
      "uez": 7005,
      "lation": 7006,
      "Ġdiagram": 7007,
      "æľĹ": 7008,
      "Ġcorporate": 7009,
      "é¬": 7010,
      "Ġï¿½": 7011,
      "Ġfell": 7012,
      "ĠThom": 7013,
      "Ġexpans": 7014,
      ".}Ċ": 7015,
      "Ġflavor": 7016,
      "inition": 7017,
      "small": 7018,
      "åĸ»": 7019,
      "æħ¢": 7020,
      "Ġclimate": 7021,
      "æĦıè§ģ": 7022,
      "Ġdifferences": 7023,
      "Ã£": 7024,
      "ĠTra": 7025,
      "éŁ³ä¹Ĳ": 7026,
      "minus": 7027,
      "æĭĵ": 7028,
      "æ®ĭ": 7029,
      "adem": 7030,
      "abilities": 7031,
      "Ġtit": 7032,
      "æĢģåº¦": 7033,
      "otic": 7034,
      "Ġperm": 7035,
      "Ġvo": 7036,
      "ĠAct": 7037,
      "Ġinform": 7038,
      "ĠAccording": 7039,
      "EO": 7040,
      "Ġequipment": 7041,
      "æĺ¯åĲ¦": 7042,
      "Ġlooks": 7043,
      "gest": 7044,
      "Ġter": 7045,
      "ĠOctober": 7046,
      "å®ļçļĦ": 7047,
      ",å¿ħ": 7048,
      "çĲĨå¿µ": 7049,
      "Ġdevelopers": 7050,
      "Ġtypical": 7051,
      ",ä»İèĢĮ": 7052,
      "Ġnotion": 7053,
      "Ġconflict": 7054,
      ".å¦Ĥæŀľ": 7055,
      "åŃ¦éĻ¢": 7056,
      "ĠLa": 7057,
      "Ġprotect": 7058,
      "âĶ": 7059,
      "urch": 7060,
      "å¡ĳ": 7061,
      "Ġunf": 7062,
      "Ġpurs": 7063,
      "pty": 7064,
      "äºĭçī©": 7065,
      "Ġextension": 7066,
      "][": 7067,
      "aren": 7068,
      "éŃı": 7069,
      "ä»Ļ": 7070,
      "Ġweeks": 7071,
      ",åĮħ": 7072,
      "Ġshowed": 7073,
      "Ġreveal": 7074,
      "ube": 7075,
      "Ġfinally": 7076,
      "ĠEng": 7077,
      "Ġstrateg": 7078,
      "Ġdefault": 7079,
      "Ã£o": 7080,
      "æŃ£ç¡®": 7081,
      "opyright": 7082,
      "roll": 7083,
      ".å¦Ĥ": 7084,
      "Ġreturns": 7085,
      "Ġimmigr": 7086,
      "Ġoffice": 7087,
      "ĠHer": 7088,
      "Ġkinds": 7089,
      "ä¸ļåĬ¡": 7090,
      "Ġdistinct": 7091,
      "ĠAfghanistan": 7092,
      "Ġselect": 7093,
      "Ġobser": 7094,
      "ĠPat": 7095,
      "oul": 7096,
      "æ¸ł": 7097,
      ",æķħ": 7098,
      "\\mathbb": 7099,
      "ä¹Łä¸į": 7100,
      "ĠRo": 7101,
      "Ġappropriate": 7102,
      "zen": 7103,
      "ĠEach": 7104,
      "),Ċ": 7105,
      "{le": 7106,
      "\\cdot": 7107,
      "-oriented": 7108,
      "Ġviolence": 7109,
      "Ġauthors": 7110,
      "Ġ-\\": 7111,
      "ubl": 7112,
      "Ġprojects": 7113,
      "Ġparents": 7114,
      "Ġremember": 7115,
      "Ġlocations": 7116,
      "Ġbul": 7117,
      "Fig": 7118,
      "Ġperspect": 7119,
      "Ġtried": 7120,
      "Ġdam": 7121,
      "ĠFeb": 7122,
      "æĢ§åĴĮ": 7123,
      "±¼": 7124,
      "ĠJo": 7125,
      "Ġchief": 7126,
      "-R": 7127,
      "æ¦Ĥå¿µ": 7128,
      "odrig": 7129,
      "èģĶåĲĪ": 7130,
      "Ġaccur": 7131,
      "¦Ĩ": 7132,
      "éĻĦ": 7133,
      "matic": 7134,
      "mitted": 7135,
      "ĠReg": 7136,
      "ĠLondon": 7137,
      "ä¹Łæľī": 7138,
      "ĠGeor": 7139,
      "åĳ½è¿Ĳ": 7140,
      "ĠRad": 7141,
      "Ġowners": 7142,
      "Ġbelong": 7143,
      "ä»ĺ": 7144,
      "æĹ¶çļĦ": 7145,
      "Ġprofessional": 7146,
      "Ar": 7147,
      "{am": 7148,
      "Ġincreases": 7149,
      "Ġsuppl": 7150,
      "\";": 7151,
      "ĊĊĊĊ": 7152,
      "ĠUnion": 7153,
      "Ġapart": 7154,
      "ĠMus": 7155,
      "Ġhotels": 7156,
      "å½»": 7157,
      "åħ±äº§": 7158,
      "{U": 7159,
      "](": 7160,
      "Sp": 7161,
      "åĬłå¼º": 7162,
      "eles": 7163,
      "Ġapproaches": 7164,
      "å¿§": 7165,
      "Ġsomew": 7166,
      ",åºĶ": 7167,
      "çİ°åľº": 7168,
      "å¾Ģå¾Ģ": 7169,
      "aust": 7170,
      "Ġcombination": 7171,
      "These": 7172,
      "Ġknew": 7173,
      "Ġsell": 7174,
      "ĠCount": 7175,
      "Ġhappened": 7176,
      "ky": 7177,
      "_b": 7178,
      "Ġ:=": 7179,
      "}-\\": 7180,
      "displaystyle": 7181,
      "{document": 7182,
      "Ġsecret": 7183,
      "ĠScience": 7184,
      "-D": 7185,
      "Ġregions": 7186,
      ",æĬ¥": 7187,
      "å¹ķ": 7188,
      "ĠNovember": 7189,
      "åıĻäºĭ": 7190,
      "ĠTwitter": 7191,
      "Ġhyper": 7192,
      "ĠAfrican": 7193,
      "Ġpain": 7194,
      ",åī": 7195,
      "Ġrac": 7196,
      "ĠPerl": 7197,
      "{{": 7198,
      "æĪĺçķ¥": 7199,
      "Ġbenefit": 7200,
      "ĠAugust": 7201,
      "Ġfrequency": 7202,
      "ĠHot": 7203,
      "è®²è¿°": 7204,
      "Ġperformed": 7205,
      "bre": 7206,
      "Ġdied": 7207,
      "Ġcalling": 7208,
      "Ġincor": 7209,
      "reek": 7210,
      "ception": 7211,
      "Ġhappens": 7212,
      "è¯Ħä»·": 7213,
      "å®¡ç¾İ": 7214,
      "\"ä¹ĭ": 7215,
      "Ġmostly": 7216,
      "iled": 7217,
      "ç¤¾ä¼ļçļĦ": 7218,
      ",å¢": 7219,
      "æĺ¯ä¸Ģç§į": 7220,
      "ults": 7221,
      "ä»¿": 7222,
      "Ġdesp": 7223,
      "Ġsemantics": 7224,
      "Ġ->": 7225,
      "Ġspaces": 7226,
      "éĢĲæ¸Ĳ": 7227,
      ".æīĢä»¥": 7228,
      "Ġdanger": 7229,
      "åĿĲ": 7230,
      "odriguez": 7231,
      "asc": 7232,
      "ĠFacebook": 7233,
      "Ġbecoming": 7234,
      "Ġcharge": 7235,
      "çĬ¶æĢģ": 7236,
      "body": 7237,
      "æ°´å¹³": 7238,
      "Ġwrites": 7239,
      "åľĨ": 7240,
      "Ġpicture": 7241,
      "è¾¾åĪ°": 7242,
      "change": 7243,
      ",åĢ": 7244,
      "åĪº": 7245,
      "{ams": 7246,
      "Ġextended": 7247,
      "Ġsmooth": 7248,
      "Ġgame": 7249,
      "Ġcomplic": 7250,
      "Ġdatab": 7251,
      "!\"": 7252,
      "Ġpurch": 7253,
      "çĸ«æĥħ": 7254,
      "åĬ±": 7255,
      "ĠBer": 7256,
      "èĢ³": 7257,
      "æŁ³": 7258,
      "æĿ¡ä»¶": 7259,
      "åĦĴ": 7260,
      "Ġ\\|": 7261,
      "è¡¡": 7262,
      ")|": 7263,
      "Ġbounded": 7264,
      "ifies": 7265,
      "Ġgalax": 7266,
      "Ġcru": 7267,
      ",ä¾¿": 7268,
      "Ġwriter": 7269,
      "Ġfoot": 7270,
      "(r": 7271,
      "Ġmur": 7272,
      "æľīæķĪ": 7273,
      "setminus": 7274,
      ",åĩº": 7275,
      "II": 7276,
      "é¦ĸåħĪ": 7277,
      "æĬĵ": 7278,
      "}\\\\Ċ": 7279,
      "äºĴåĬ¨": 7280,
      "Ġshift": 7281,
      "Ġhimself": 7282,
      "Our": 7283,
      "Ġgreen": 7284,
      "éĺĶ": 7285,
      "iding": 7286,
      "Ġcommunication": 7287,
      "^k": 7288,
      "Ġund": 7289,
      "Ġeditors": 7290,
      "Ġinteract": 7291,
      "cember": 7292,
      "Ġarbitrary": 7293,
      "Theta": 7294,
      "ĠHist": 7295,
      "æµĵ": 7296,
      "Ġtroops": 7297,
      "-of": 7298,
      "Ġchannel": 7299,
      "Ġprofessor": 7300,
      "è¯¦": 7301,
      "rite": 7302,
      "ä¸ºä»Ģä¹Ī": 7303,
      "Ġsil": 7304,
      "Ġrestric": 7305,
      "çĶµè§Ĩåı°": 7306,
      "ĠDes": 7307,
      "Ġinfinite": 7308,
      "æĥ¯": 7309,
      "åºĶçĶ¨": 7310,
      "Ġstandards": 7311,
      "åĵģçīĮ": 7312,
      "ç¢ĳ": 7313,
      "Ġalternative": 7314,
      "Ġfix": 7315,
      "Ġconvention": 7316,
      "Ġeigen": 7317,
      ",å°ı": 7318,
      "çĻ¾å§ĵ": 7319,
      "Ġmaps": 7320,
      "Ġskills": 7321,
      "</": 7322,
      "zing": 7323,
      "æŃ£åľ¨": 7324,
      "airs": 7325,
      "ID": 7326,
      "Ġice": 7327,
      "Ġlibraries": 7328,
      "Ġ$[": 7329,
      "uations": 7330,
      "OM": 7331,
      "Ġprices": 7332,
      ",åĽł": 7333,
      "æ¤": 7334,
      "Ġtrend": 7335,
      "çĥŁ": 7336,
      "Ġenter": 7337,
      "Ġhandle": 7338,
      "(k": 7339,
      "Ġhighest": 7340,
      ",æĹ¢": 7341,
      "æ°ĳä¸»": 7342,
      "}},": 7343,
      "èī²å½©": 7344,
      ",s": 7345,
      "Ġamb": 7346,
      "Ġstrict": 7347,
      "uk": 7348,
      "çīĽ": 7349,
      "forall": 7350,
      "èī°": 7351,
      "ĠAlso": 7352,
      "ĠEvery": 7353,
      "åĭĴ": 7354,
      "My": 7355,
      "ç§ĳæĬĢ": 7356,
      "è½¬åŀĭ": 7357,
      "Ġimportance": 7358,
      "Ġcommercial": 7359,
      "using": 7360,
      "éĶĭ": 7361,
      "irect": 7362,
      "ä¸ĵå®¶": 7363,
      "Ġslightly": 7364,
      "tee": 7365,
      ",éĽ": 7366,
      "ĠMed": 7367,
      "Ġmarketing": 7368,
      "åĨħå¿ĥ": 7369,
      "æĺİç¡®": 7370,
      "ufact": 7371,
      "Ġlatest": 7372,
      "Ġhands": 7373,
      "æĢª": 7374,
      "æĸĩåŃ¦çļĦ": 7375,
      "èµĽ": 7376,
      "ä¾µ": 7377,
      "$$ĊĊ": 7378,
      "idge": 7379,
      "ĠObject": 7380,
      "Ġderived": 7381,
      "iec": 7382,
      "å±ŀäºİ": 7383,
      "olic": 7384,
      "åı¦ä¸Ģ": 7385,
      "itness": 7386,
      "Ġfirm": 7387,
      "Ġaw": 7388,
      "Ġori": 7389,
      "ä¼¼ä¹İ": 7390,
      "iter": 7391,
      "Ġprotest": 7392,
      "ä¸¹": 7393,
      "æĻĵ": 7394,
      "Ġdro": 7395,
      "Ġcontroll": 7396,
      "Ġprefer": 7397,
      "æģĲ": 7398,
      "ĠToday": 7399,
      "ä¼´": 7400,
      "Ġcompact": 7401,
      "Ġshall": 7402,
      "Ġexplained": 7403,
      ",åŁ": 7404,
      "arp": 7405,
      "Ġrevenue": 7406,
      "Ġnor": 7407,
      "è®¢": 7408,
      "Ġcontact": 7409,
      ".ä½Ĩæĺ¯": 7410,
      "Ġyourself": 7411,
      "Ġreality": 7412,
      "æĿ¥çľĭ": 7413,
      "åįıä¼ļ": 7414,
      "Ġrelease": 7415,
      "-th": 7416,
      "atever": 7417,
      "åĲĮæł·": 7418,
      "ployment": 7419,
      "Ġabsol": 7420,
      "Ġsend": 7421,
      "Ġgeneric": 7422,
      "-free": 7423,
      "å¤ļçļĦ": 7424,
      "Ġcouple": 7425,
      "çŃĸåĪĴ": 7426,
      ",åģļ": 7427,
      "Ġboard": 7428,
      "é±¼": 7429,
      "ä¸ºä¸»": 7430,
      "èĪį": 7431,
      "è´´": 7432,
      "Ġwidely": 7433,
      "Ġknows": 7434,
      "Ġconnection": 7435,
      "Ġseven": 7436,
      "çĶ»éĿ¢": 7437,
      "Ġobservations": 7438,
      "inger": 7439,
      "Ġplane": 7440,
      "ĠSystem": 7441,
      "Ġchosen": 7442,
      "Ġcop": 7443,
      "Ġfamiliar": 7444,
      "long": 7445,
      "ä¹¦ä¸Ń": 7446,
      "_A": 7447,
      "ĠPalestin": 7448,
      "ĠRel": 7449,
      "å¼Ģå±ķ": 7450,
      "ä¸įå°ĳ": 7451,
      "nic": 7452,
      "Vert": 7453,
      "Ġbrief": 7454,
      "\"I": 7455,
      "æķı": 7456,
      "çĪ±æĥħ": 7457,
      "Ġtasks": 7458,
      "æ¯Ķå¦Ĥ": 7459,
      "èįĴ": 7460,
      "Ġmeasures": 7461,
      "Ġeight": 7462,
      "ä»°": 7463,
      "å¦ĩ": 7464,
      ",åĵ": 7465,
      "Ġtransformation": 7466,
      "ln": 7467,
      "éļľ": 7468,
      "çĲ´": 7469,
      ",éĤ£ä¹Ī": 7470,
      "enty": 7471,
      "çļĦæĸ¹å¼ı": 7472,
      "oto": 7473,
      "å«": 7474,
      "Ġreleased": 7475,
      "Ġestablished": 7476,
      "Ġcategor": 7477,
      "è§£éĩĬ": 7478,
      "Ġeventually": 7479,
      "çĤ¼": 7480,
      "èĢĮä¸į": 7481,
      "Le": 7482,
      "æıŃ": 7483,
      "que": 7484,
      "ecific": 7485,
      "(u": 7486,
      "Ġwonder": 7487,
      ",æĶ¿": 7488,
      "Ġcelebr": 7489,
      "-B": 7490,
      "Ġruns": 7491,
      "çłģ": 7492,
      "Ġwants": 7493,
      "{center": 7494,
      "Ġalone": 7495,
      "Ġfalse": 7496,
      "èĢģå¸Ī": 7497,
      "æĥ³è±¡": 7498,
      "while": 7499,
      "ĠEconom": 7500,
      "Ġmagnetic": 7501,
      "Ġinstances": 7502,
      "ĠFre": 7503,
      ">>": 7504,
      "ugg": 7505,
      "Ġlatter": 7506,
      "Ġreplace": 7507,
      "ĠFoundation": 7508,
      "Ñĩ": 7509,
      "'_": 7510,
      "ĠWell": 7511,
      "roduction": 7512,
      ",åªĴä½ĵ": 7513,
      "çļĦä¸Ģä¸ª": 7514,
      "éĩĩçĶ¨": 7515,
      "othes": 7516,
      "æİ¨è¿Ľ": 7517,
      "æĸĩäºº": 7518,
      "Ġcream": 7519,
      "Ġbiggest": 7520,
      "ä¸īä¸ª": 7521,
      "æľ´": 7522,
      "Ġexhib": 7523,
      "ĠÐ²": 7524,
      "Ġflav": 7525,
      "ĠMart": 7526,
      "éķľ": 7527,
      "èĲ¨": 7528,
      "Ġstudied": 7529,
      "Ġtowards": 7530,
      "Ġcomputing": 7531,
      "âĶĢ": 7532,
      "ĠItalian": 7533,
      "Ġfear": 7534,
      "Ġqual": 7535,
      "Ġinstant": 7536,
      "ietnam": 7537,
      "å¥³æĢ§": 7538,
      "ĠData": 7539,
      "{W": 7540,
      "ĠIndia": 7541,
      "å¸®åĬ©": 7542,
      "Ġbud": 7543,
      "stein": 7544,
      "\"ä¸İ": 7545,
      "éĩįæĸ°": 7546,
      "èĦī": 7547,
      "è¦Ĩ": 7548,
      "length": 7549,
      "iate": 7550,
      "ä½ĵéªĮ": 7551,
      "Ġblocks": 7552,
      "çļĦè¯Ĺ": 7553,
      "Ġfig": 7554,
      "éĢļè®¯": 7555,
      "Ġstatements": 7556,
      "Ġlib": 7557,
      ".~": 7558,
      "çŃīçŃī": 7559,
      "çŃĳ": 7560,
      "Ġestimated": 7561,
      "çĬ¯": 7562,
      "icians": 7563,
      "arter": 7564,
      ",æŃ¤": 7565,
      "ĠCont": 7566,
      "{z": 7567,
      "ä¹°": 7568,
      "Ġgrav": 7569,
      "Ġwilling": 7570,
      "ini": 7571,
      "Ġdecom": 7572,
      "æĪĲçļĦ": 7573,
      "Ġemph": 7574,
      "Ġprimary": 7575,
      "ĠSub": 7576,
      "\\sigma": 7577,
      "Ġexistence": 7578,
      "color": 7579,
      "Ġidentify": 7580,
      ",åŃ¦": 7581,
      "Ġapproximation": 7582,
      "Ġmicro": 7583,
      "Ġnecessarily": 7584,
      "rs": 7585,
      "Ġopinion": 7586,
      "cknow": 7587,
      ",å»º": 7588,
      "\"æĸ°": 7589,
      "éĺ¶çº§": 7590,
      "xspace": 7591,
      "-Mart": 7592,
      ",åĲĦ": 7593,
      "Some": 7594,
      "ternal": 7595,
      "Ġinher": 7596,
      "print": 7597,
      "Ġinstructions": 7598,
      "Ġpractical": 7599,
      "Ġbits": 7600,
      "rupt": 7601,
      "Ġfocused": 7602,
      "ĠIS": 7603,
      "ç¯ĩå°ıè¯´": 7604,
      "texttt": 7605,
      "è±ª": 7606,
      "Ġsignificantly": 7607,
      "&&": 7608,
      "Ġeditorial": 7609,
      "Ġtechnique": 7610,
      "ĠRepublic": 7611,
      "chron": 7612,
      "ille": 7613,
      "Ġonto": 7614,
      "ĠStr": 7615,
      "uild": 7616,
      "ĠPaul": 7617,
      ".m": 7618,
      "onic": 7619,
      "Ġteach": 7620,
      "æĢ»ä¹¦è®°": 7621,
      "Ġgap": 7622,
      "Ġstable": 7623,
      "fit": 7624,
      "è¯»ä¹¦": 7625,
      "Ġprocessing": 7626,
      "åĦ¿ç«¥": 7627,
      "ãĥ": 7628,
      "ä¸ĢåĪĩ": 7629,
      "Ġvelocity": 7630,
      "ara": 7631,
      "Ġempty": 7632,
      "aked": 7633,
      "{q": 7634,
      "ä¹ĭå¤ĸ": 7635,
      "æĬĴ": 7636,
      "defined": 7637,
      "Ġnoise": 7638,
      "acro": 7639,
      "}}(\\": 7640,
      "$$\\": 7641,
      "Ġphotograp": 7642,
      "(T": 7643,
      "Ġincreasingly": 7644,
      "Ġadvoc": 7645,
      "dom": 7646,
      "(v": 7647,
      "Ġmeant": 7648,
      "åįģå¹´": 7649,
      "çŁĽ": 7650,
      "ache": 7651,
      "çļĩå¸Ŀ": 7652,
      "isation": 7653,
      "çļĦæľĢ": 7654,
      "IA": 7655,
      "Ġassumption": 7656,
      "ĠWestern": 7657,
      "å¹½": 7658,
      ",åĴ": 7659,
      "ĠMark": 7660,
      "ugh": 7661,
      "bb": 7662,
      "Ġuns": 7663,
      "æĹĹ": 7664,
      "ĠArm": 7665,
      "Ġpolitics": 7666,
      "icle": 7667,
      "Ġpublis": 7668,
      "Ġgraphs": 7669,
      "-order": 7670,
      "Ġpatterns": 7671,
      "çļĦç²¾ç¥ŀ": 7672,
      "itality": 7673,
      "Ġclassical": 7674,
      "pping": 7675,
      "ressed": 7676,
      "Ġfra": 7677,
      "citet": 7678,
      "Ġsegment": 7679,
      "ĠOver": 7680,
      "Ġregime": 7681,
      ",æĿİ": 7682,
      "ias": 7683,
      "Ġstars": 7684,
      "Ġdebate": 7685,
      "Ġdining": 7686,
      "ĠWilli": 7687,
      "orphic": 7688,
      "Ġexpansion": 7689,
      "é¬¼": 7690,
      "Ġfewer": 7691,
      "acity": 7692,
      ",å·²": 7693,
      "OL": 7694,
      "æĪĲéķ¿": 7695,
      ",é«ĺ": 7696,
      "Ġpackage": 7697,
      "ç»ıå¸¸": 7698,
      "é¢ĩ": 7699,
      "ĠMexico": 7700,
      "(i": 7701,
      "ä¼ļè®®": 7702,
      "ç±»åŀĭ": 7703,
      "Ġscenari": 7704,
      "çĬ¹": 7705,
      "ĠĠĠĠĠĠĠĠĠĠĠĠ": 7706,
      ",åĶ": 7707,
      "Ġ.Ċ": 7708,
      "Ġcontinues": 7709,
      "span": 7710,
      "Ġscre": 7711,
      "Ġcitizens": 7712,
      "-and": 7713,
      "Ġmus": 7714,
      "ä¸ģ": 7715,
      "Ġsector": 7716,
      ",v": 7717,
      "ĠUsing": 7718,
      "åķĨä¸ļ": 7719,
      "){": 7720,
      ",æĢ»": 7721,
      "Ġactive": 7722,
      "Ġsenior": 7723,
      "sto": 7724,
      "ĠRead": 7725,
      "Ġresponsible": 7726,
      "eed": 7727,
      "\"The": 7728,
      "iling": 7729,
      "ĠDecember": 7730,
      "Ġ\\;": 7731,
      "Ġsoldiers": 7732,
      ":\\": 7733,
      "greg": 7734,
      "Ġnotation": 7735,
      "Ġround": 7736,
      "Ġleaving": 7737,
      "åĩı": 7738,
      "unc": 7739,
      "Ġhear": 7740,
      "Ġadds": 7741,
      "ä¹Į": 7742,
      "Ġspeech": 7743,
      "Ġconsidering": 7744,
      "ä»įçĦ¶": 7745,
      "EC": 7746,
      "çĽ¸å¯¹": 7747,
      "ä»»åĬ¡": 7748,
      "\\alpha": 7749,
      "rial": 7750,
      "Ġchem": 7751,
      "ruary": 7752,
      "Ġexperiments": 7753,
      "ĠDay": 7754,
      "åĢ¼å¾Ĺ": 7755,
      "ĠÎ": 7756,
      "Ġexpressed": 7757,
      "oplus": 7758,
      ",åĪ°": 7759,
      "æ¯«": 7760,
      "çº½": 7761,
      "å§Ķåĳĺ": 7762,
      "underline": 7763,
      "Ġvisual": 7764,
      "æĲľ": 7765,
      "Ġhelps": 7766,
      "anda": 7767,
      "Ġuncertain": 7768,
      "ĠBusiness": 7769,
      "'\\": 7770,
      "Ġcat": 7771,
      ">Ċ": 7772,
      "Ġsatisfies": 7773,
      "Ġvan": 7774,
      "æ³°": 7775,
      "Ġphen": 7776,
      "------------": 7777,
      ";\"": 7778,
      "fort": 7779,
      "Ġaccuracy": 7780,
      "Ġforced": 7781,
      "Ġindeed": 7782,
      ",è¿Ļç§į": 7783,
      "Ġcompetition": 7784,
      "Ġinteraction": 7785,
      "ender": 7786,
      "åĲ§": 7787,
      "ĠRober": 7788,
      "æĺ¾ç¤º": 7789,
      "Ġsand": 7790,
      "*,": 7791,
      "Ġprison": 7792,
      "Ġmathematical": 7793,
      "ä¸»å¸Ń": 7794,
      "espite": 7795,
      "ford": 7796,
      "Ġten": 7797,
      ",éļı": 7798,
      "Ġswit": 7799,
      "Ġconsists": 7800,
      "Ġstock": 7801,
      "åĿı": 7802,
      "Ġhop": 7803,
      "Ġcollege": 7804,
      "Ġadvance": 7805,
      "å»·": 7806,
      "è¡Ĺ": 7807,
      "akistan": 7808,
      "åħ¸åŀĭ": 7809,
      "Ġemp": 7810,
      "ĠVietnam": 7811,
      ",çİĭ": 7812,
      "nes": 7813,
      "No": 7814,
      "Ġmanif": 7815,
      "æ¸łéģĵ": 7816,
      "éĺĲ": 7817,
      "Ġflat": 7818,
      "åı¬": 7819,
      "Ġemphas": 7820,
      "ãĤ": 7821,
      "é¢ľ": 7822,
      "è´Łè´£": 7823,
      "ipped": 7824,
      "comm": 7825,
      "Ġevaluation": 7826,
      "####": 7827,
      "ä¸ĭæĿ¥": 7828,
      "Ġenh": 7829,
      "è´Ŀ": 7830,
      "Ġhundreds": 7831,
      "æ£Ģ": 7832,
      "Ġtrust": 7833,
      "ĠLat": 7834,
      "ruit": 7835,
      "éĢĴ": 7836,
      "auss": 7837,
      "Ġroll": 7838,
      ".pdf": 7839,
      "ĠDevelop": 7840,
      ",åĿļ": 7841,
      "Ġstrength": 7842,
      ",ä¸įä»ħ": 7843,
      "Ġmeeting": 7844,
      "å®ı": 7845,
      "Ġmeals": 7846,
      "eries": 7847,
      "Ġsplit": 7848,
      "Ġcontinued": 7849,
      "cer": 7850,
      "ean": 7851,
      "code": 7852,
      "Ġinstruction": 7853,
      "æ¬£": 7854,
      "Ġdespite": 7855,
      "å°¾": 7856,
      "tes": 7857,
      "Ġmainstream": 7858,
      "ructure": 7859,
      "Ġacqu": 7860,
      "opping": 7861,
      "Ġplot": 7862,
      "Ġscope": 7863,
      "Ġkept": 7864,
      "ä¸»æµģåªĴä½ĵ": 7865,
      "ä¸įå¾Ĺ": 7866,
      "Ġpractices": 7867,
      "æĺİæĺ¾": 7868,
      "Ġconcepts": 7869,
      "Ġnumerical": 7870,
      "åŃŁ": 7871,
      "}ĊĊĊ": 7872,
      "NS": 7873,
      "Ġfriend": 7874,
      "Ġmode": 7875,
      "Ġdepending": 7876,
      "ieces": 7877,
      "åħ¨åªĴä½ĵ": 7878,
      ".)Ċ": 7879,
      "æīĭæ³ķ": 7880,
      "å°Ŀ": 7881,
      "Ġpoverty": 7882,
      "Ġplans": 7883,
      "åįĸ": 7884,
      "ĠDr": 7885,
      "cks": 7886,
      "æİĺ": 7887,
      "\\cite": 7888,
      "iated": 7889,
      "Ġlargely": 7890,
      "åıĬåħ¶": 7891,
      "å¡ŀ": 7892,
      "-F": 7893,
      "åĨĻçļĦ": 7894,
      "Ġcontaining": 7895,
      "ashed": 7896,
      "^-": 7897,
      "Ġwine": 7898,
      "éĻ¶": 7899,
      "elligence": 7900,
      "ĠAsia": 7901,
      "eler": 7902,
      "Ġcovering": 7903,
      "å¾Ĵ": 7904,
      "Ġpolic": 7905,
      "å©ļ": 7906,
      "soft": 7907,
      "æııè¿°": 7908,
      "ĠInstead": 7909,
      "Ġchance": 7910,
      "ÑģÑĤ": 7911,
      "åĺī": 7912,
      "Ġindepend": 7913,
      "ç»¼åĲĪ": 7914,
      "æľºä¼ļ": 7915,
      "ucks": 7916,
      "æĮģç»Ń": 7917,
      "^i": 7918,
      "sup": 7919,
      "æĽ¾ç»ı": 7920,
      "ocratic": 7921,
      "afe": 7922,
      ".è¿ĻäºĽ": 7923,
      "Ġcomputed": 7924,
      "but": 7925,
      "ĠProposition": 7926,
      "Ġdescribes": 7927,
      "flo": 7928,
      "å®ĥä»¬": 7929,
      "åīĳ": 7930,
      "åĽłç´ł": 7931,
      "çİĦ": 7932,
      "Ġscheme": 7933,
      ")]": 7934,
      "Ġrestrict": 7935,
      "æĿ¥æºĲ": 7936,
      ",T": 7937,
      "ĠProject": 7938,
      "è´¡çĮ®": 7939,
      "ä¼Łå¤§": 7940,
      "Ġreduction": 7941,
      "Ġunits": 7942,
      "çī¢": 7943,
      "asion": 7944,
      "å²¸": 7945,
      "æĮĳæĪĺ": 7946,
      "ouble": 7947,
      "Ġessentially": 7948,
      "eria": 7949,
      "è®°è½½": 7950,
      "åĽ¾çīĩ": 7951,
      "è¾ī": 7952,
      "Ġdecade": 7953,
      "åħ´è¶£": 7954,
      "Ġpointer": 7955,
      "oston": 7956,
      "ĠWall": 7957,
      "ios": 7958,
      "Ġax": 7959,
      "-T": 7960,
      "Ġframe": 7961,
      "Ġdetailed": 7962,
      "igned": 7963,
      "ä¸ĢçĤ¹": 7964,
      "ony": 7965,
      "service": 7966,
      "Ġcycle": 7967,
      "Ġincome": 7968,
      "çļĦæĸĩåĮĸ": 7969,
      "éĻ·": 7970,
      "Ġfelt": 7971,
      "Ġdoll": 7972,
      "olec": 7973,
      "Ġdoc": 7974,
      "umb": 7975,
      "Ġrout": 7976,
      "ĠCL": 7977,
      "æľīæīĢ": 7978,
      "orts": 7979,
      "Ġtempl": 7980,
      "Ġsolid": 7981,
      "ota": 7982,
      "ĠMos": 7983,
      "Ġtast": 7984,
      "Ġmanufact": 7985,
      "ancy": 7986,
      "åĿ¡": 7987,
      "èĮĥåĽ´": 7988,
      "æ°ĳä¼Ĺ": 7989,
      ",ä»ĸçļĦ": 7990,
      "Ġphotograph": 7991,
      "ä¼į": 7992,
      "oting": 7993,
      "æ²¹": 7994,
      "Ġcookbook": 7995,
      "Ġtour": 7996,
      "é¸£": 7997,
      "(S": 7998,
      "xy": 7999,
      "urity": 8000,
      "Ġedition": 8001,
      "ĠMiddle": 8002,
      "\\theta": 8003,
      "åĵ¥": 8004,
      "}}}$": 8005,
      "(M": 8006,
      "Ġexplan": 8007,
      "ologies": 8008,
      "\\v": 8009,
      "stack": 8010,
      "ĠIndian": 8011,
      "ç»Łæ²»": 8012,
      "åıĤåĬł": 8013,
      "å°Ħ": 8014,
      ",æīįèĥ½": 8015,
      "Ġsides": 8016,
      "olved": 8017,
      "Ġperspective": 8018,
      "raz": 8019,
      "Ġimperative": 8020,
      "èĳĽ": 8021,
      "Ġpositions": 8022,
      "çŁĽçĽ¾": 8023,
      "Ġpreviously": 8024,
      "\\textwidth": 8025,
      "éĤ£ä¸ª": 8026,
      "æľīäºĽ": 8027,
      "ĠBBC": 8028,
      "Ġparty": 8029,
      ",å¹¶ä¸Ķ": 8030,
      "ĠIsraeli": 8031,
      "å¿ĥçĲĨ": 8032,
      "çĽ¸å½ĵ": 8033,
      "çĻ¾å¹´": 8034,
      "çĶŁåŃĺ": 8035,
      "åı¹": 8036,
      "Ġnotes": 8037,
      "åŃ£": 8038,
      ",éľ": 8039,
      "çī¹æ®Ĭ": 8040,
      "igration": 8041,
      "çķħ": 8042,
      "çļĦä¸ŃåĽ½": 8043,
      "_N": 8044,
      "è´¤": 8045,
      "ims": 8046,
      "æĻ®éĢļ": 8047,
      "Ġfish": 8048,
      "urrent": 8049,
      "éĤ¦": 8050,
      ")$.ĊĊ": 8051,
      "æĭľ": 8052,
      "vex": 8053,
      "eline": 8054,
      "-term": 8055,
      "ĠOp": 8056,
      "utation": 8057,
      "}).": 8058,
      "èĮ¶": 8059,
      "ĠSuch": 8060,
      "market": 8061,
      "åĵĪ": 8062,
      "US": 8063,
      "reme": 8064,
      "ç¤¾äº¤": 8065,
      "}}^{": 8066,
      "Ġrapid": 8067,
      ".L": 8068,
      "Ġresearc": 8069,
      "}}$,": 8070,
      "do": 8071,
      "Ġfat": 8072,
      "ki": 8073,
      "è§£æĶ¾": 8074,
      "æ´ģ": 8075,
      "Ġproved": 8076,
      "çĶ«": 8077,
      "pled": 8078,
      "Ġprinciple": 8079,
      "),\\": 8080,
      "Ġtheore": 8081,
      "ĠBook": 8082,
      "IR": 8083,
      "Ġsafe": 8084,
      "MS": 8085,
      "çļĦä¿¡æģ¯": 8086,
      "ä¸»ä½ĵ": 8087,
      "approx": 8088,
      "foot": 8089,
      "æĭ¥æľī": 8090,
      "æĬ±": 8091,
      "è·Ŀ": 8092,
      "Ġextract": 8093,
      "mathtt": 8094,
      "æ½ľ": 8095,
      "Ġmarg": 8096,
      "Ġep": 8097,
      "acing": 8098,
      "Ġreform": 8099,
      ",å¯¹äºİ": 8100,
      "how": 8101,
      "ä¸Ģä½į": 8102,
      "ĠPakistan": 8103,
      "ĠFinally": 8104,
      "æ¦": 8105,
      "åıĸå¾Ĺ": 8106,
      "Ġsec": 8107,
      "æĺĮ": 8108,
      "Ġbehavi": 8109,
      "é¡¹çĽ®": 8110,
      "ĠGerman": 8111,
      "ounder": 8112,
      "Ġraise": 8113,
      "Ġmotiv": 8114,
      "')": 8115,
      "Ġcart": 8116,
      "èį¡": 8117,
      "Ġmeasured": 8118,
      "ĠAre": 8119,
      "cis": 8120,
      "Ġcheese": 8121,
      "Ġtechnical": 8122,
      "Ġstations": 8123,
      "Ġscript": 8124,
      "çī¹åĪ«æĺ¯": 8125,
      "ĠTechn": 8126,
      "è£ģ": 8127,
      "Ġdark": 8128,
      "Ġhous": 8129,
      "åĩłä¸ª": 8130,
      ".è¿Ļç§į": 8131,
      "å¼ºçĥĪ": 8132,
      ",é£": 8133,
      "é«ĺçļĦ": 8134,
      "Ġversions": 8135,
      "OC": 8136,
      "Ġtherm": 8137,
      "Ġrich": 8138,
      ",åĮħæĭ¬": 8139,
      "_*": 8140,
      "çĽ¸ä¿¡": 8141,
      "textrm": 8142,
      "å¿½": 8143,
      "è°±": 8144,
      "HE": 8145,
      "ĠMuslim": 8146,
      "ĠIndeed": 8147,
      "Ġadministration": 8148,
      "Ġagree": 8149,
      "Ġmedium": 8150,
      "è¾ĵ": 8151,
      "æ´ŀ": 8152,
      "riers": 8153,
      "ested": 8154,
      "Then": 8155,
      "ferent": 8156,
      "å±ķçİ°": 8157,
      "Ġphenomen": 8158,
      "æĦĪ": 8159,
      "spect": 8160,
      "uts": 8161,
      "Ġmist": 8162,
      "è¾Ī": 8163,
      "è°£": 8164,
      "ortunately": 8165,
      "Ġwa": 8166,
      "oughly": 8167,
      "Ġdynamics": 8168,
      "Ġtempor": 8169,
      "ĠGreen": 8170,
      "ĊĊĊ": 8171,
      "Ġroot": 8172,
      "éĹ²": 8173,
      "æĦıæĢĿ": 8174,
      "ĠDi": 8175,
      "Ġanalog": 8176,
      "{table": 8177,
      "Ġopportunities": 8178,
      "è§Ħæ¨¡": 8179,
      "å®ĩ": 8180,
      "Ġbill": 8181,
      "arbucks": 8182,
      "hered": 8183,
      "æĪĲæŀľ": 8184,
      "Ġexplicitly": 8185,
      "\\]Ċ": 8186,
      "then": 8187,
      "èº«ä»½": 8188,
      "ls": 8189,
      "Ġlatt": 8190,
      "urd": 8191,
      "Ġreached": 8192,
      "ĠPort": 8193,
      "ĠCEO": 8194,
      "æµģä¼ł": 8195,
      "æİ§åĪ¶": 8196,
      "å¤ļæķ°": 8197,
      ",é¦": 8198,
      "Ġkern": 8199,
      "adr": 8200,
      "Ġsummer": 8201,
      "Ġmassive": 8202,
      "comple": 8203,
      "ixt": 8204,
      "Ġspir": 8205,
      "çĭĤ": 8206,
      "Ġestimates": 8207,
      "\":": 8208,
      "Ġlists": 8209,
      "æ²Ł": 8210,
      "Ġclaims": 8211,
      ",ç¤¾ä¼ļ": 8212,
      "Ġmobile": 8213,
      "çļĦæĥħ": 8214,
      "å±ķç¤º": 8215,
      "Ġsamples": 8216,
      "this": 8217,
      "fered": 8218,
      "-like": 8219,
      "æµ®": 8220,
      "ĠRub": 8221,
      "å±Ī": 8222,
      "Ġentry": 8223,
      "Ġconsult": 8224,
      "éĿ¢ä¸´": 8225,
      "Ġtim": 8226,
      "ä¿ĥè¿Ľ": 8227,
      "é¡¶": 8228,
      "Ġheard": 8229,
      "æĸĹäºī": 8230,
      "Ġpreserv": 8231,
      "è§Ħå¾ĭ": 8232,
      "å°±ä¼ļ": 8233,
      "ä»¥ä¸º": 8234,
      "Ġarr": 8235,
      "ĠJames": 8236,
      "æ¯įäº²": 8237,
      "æİī": 8238,
      "istical": 8239,
      "bert": 8240,
      "Ġfather": 8241,
      "æģ°": 8242,
      "Ġdeclar": 8243,
      "ropy": 8244,
      "Ġstrongly": 8245,
      "Ġpieces": 8246,
      "Ġphoto": 8247,
      "Ġidentified": 8248,
      "Ġflex": 8249,
      "\\le": 8250,
      "Ġworst": 8251,
      "ya": 8252,
      "Ġscat": 8253,
      "prod": 8254,
      "Ġwouldn": 8255,
      "Ġreturned": 8256,
      "Ġselection": 8257,
      "Ġindividuals": 8258,
      "ĠAut": 8259,
      "-a": 8260,
      "è¯´çļĦ": 8261,
      "å®ĥçļĦ": 8262,
      ",é»": 8263,
      "anging": 8264,
      "èµ°åĲĳ": 8265,
      ",èĥ½": 8266,
      "Ġremaining": 8267,
      "Ġannual": 8268,
      "ĠRich": 8269,
      "Ġspat": 8270,
      ",äººä»¬": 8271,
      "\\}": 8272,
      "{fig": 8273,
      "Ġminimal": 8274,
      "mes": 8275,
      "ding": 8276,
      "ĠMexican": 8277,
      "ĠFebruary": 8278,
      "æĸ°æĹ¶ä»£": 8279,
      "Ġkeeping": 8280,
      "|^": 8281,
      "çĽŁ": 8282,
      "vention": 8283,
      "Ġson": 8284,
      "Ġpanel": 8285,
      "related": 8286,
      "è¿ĽæŃ¥": 8287,
      "Ã§": 8288,
      "Ġdefinitions": 8289,
      "Ġactivity": 8290,
      "å¹¿å¤§": 8291,
      "Ġbudget": 8292,
      "åľ°çļĦ": 8293,
      "è¶ħè¿ĩ": 8294,
      "çĪĨ": 8295,
      "from": 8296,
      "è§Ĵèī²": 8297,
      ",æīĵ": 8298,
      "Ġreader": 8299,
      "Ġpartial": 8300,
      "Ġowner": 8301,
      "idden": 8302,
      "Ġ~": 8303,
      "æĦģ": 8304,
      "Ġfilter": 8305,
      "isely": 8306,
      "æĸ¹éĿ¢çļĦ": 8307,
      "Ġtea": 8308,
      "Ġintegral": 8309,
      "è½®": 8310,
      "ĠAustral": 8311,
      "abs": 8312,
      "$ĊĊ": 8313,
      "eck": 8314,
      "Ġhum": 8315,
      "ĠJapanese": 8316,
      ",m": 8317,
      "Ġweap": 8318,
      "ĠBoston": 8319,
      "ĠRadio": 8320,
      "etwork": 8321,
      "å¢ĥçķĮ": 8322,
      ".çĦ¶èĢĮ": 8323,
      "çªģåĩº": 8324,
      "Ġwait": 8325,
      "å®¾": 8326,
      "å¦»": 8327,
      ",ç»Ļ": 8328,
      "å·¥ä½ľçļĦ": 8329,
      "Ġpredic": 8330,
      ",è¿Ļä¸ª": 8331,
      "å®ĹæķĻ": 8332,
      "Ġbranch": 8333,
      "elled": 8334,
      "bul": 8335,
      ",çĦ¶åĲİ": 8336,
      "æ³½ä¸ľ": 8337,
      "ä»ª": 8338,
      "è¯ĹçļĦ": 8339,
      "Ġstatistics": 8340,
      "Ðº": 8341,
      "Ġsuggests": 8342,
      "ä¾¯": 8343,
      "}$.ĊĊ": 8344,
      "æĹ¦": 8345,
      ",i": 8346,
      "èķ´": 8347,
      "åħĦ": 8348,
      "è½¯": 8349,
      "mapsto": 8350,
      "Ġcombined": 8351,
      "ĠRussia": 8352,
      "Ġstatus": 8353,
      "å¥ī": 8354,
      "Ġexecutives": 8355,
      "Ġband": 8356,
      "Ġaspects": 8357,
      "Ġefficiency": 8358,
      ".å¥¹": 8359,
      "ĠCoun": 8360,
      "After": 8361,
      "Ġdual": 8362,
      "¤åħ¶æĺ¯": 8363,
      ",æ°ĳ": 8364,
      "itation": 8365,
      "Ġready": 8366,
      "Ġri": 8367,
      "ĠYet": 8368,
      "Ġtells": 8369,
      "ĠLabor": 8370,
      "na": 8371,
      "æĦŁåĪ°": 8372,
      "inf": 8373,
      "Ġpow": 8374,
      "åıĻè¿°": 8375,
      "=(": 8376,
      "Ġcas": 8377,
      "ĠTheir": 8378,
      "ume": 8379,
      "åºĹ": 8380,
      "fill": 8381,
      "çļ®": 8382,
      "æĸ°éĹ»ä¼łæĴŃ": 8383,
      "Ġtables": 8384,
      "Not": 8385,
      "Ġexplains": 8386,
      "Ġresidents": 8387,
      "}^{-": 8388,
      "Ġdataset": 8389,
      "Ġvs": 8390,
      "è§Ĥä¼Ĺ": 8391,
      "è§Ĩè§Ĵ": 8392,
      "Ġoffered": 8393,
      "orie": 8394,
      "ET": 8395,
      "rie": 8396,
      "anned": 8397,
      "men": 8398,
      ".ä»ĸä»¬": 8399,
      ",çľĭ": 8400,
      "flow": 8401,
      "rays": 8402,
      "è·ĥ": 8403,
      "Ġvary": 8404,
      "çĶµå½±": 8405,
      "Ġchoices": 8406,
      "Ġcultural": 8407,
      "Why": 8408,
      "Ġcaused": 8409,
      "æĬ¥å¯¼": 8410,
      "aly": 8411,
      "è¡ĮçļĦ": 8412,
      "arden": 8413,
      "ä¹¦çĶ»": 8414,
      "Ġregional": 8415,
      "Ġdatabase": 8416,
      "éĻµ": 8417,
      "è¡°": 8418,
      "Ġproport": 8419,
      "ĠCanada": 8420,
      "åįģäºĮ": 8421,
      "æĬĬæı¡": 8422,
      "Ġcalculated": 8423,
      "<\\": 8424,
      ",åĪĨ": 8425,
      "Ġsett": 8426,
      ",è¿ĺæľī": 8427,
      "ĠFl": 8428,
      "Ġampl": 8429,
      "Ġresource": 8430,
      "è¯ŀ": 8431,
      "ä½łçļĦ": 8432,
      "Ġdivid": 8433,
      "éķ¿æľŁ": 8434,
      "Ġspok": 8435,
      "äººå¿ĥ": 8436,
      "éļ¾ä»¥": 8437,
      "omin": 8438,
      "Ġreceive": 8439,
      "å§ĭç»Ī": 8440,
      "çĽ¸äºĴ": 8441,
      "ç¾İçļĦ": 8442,
      "å®ľ": 8443,
      ",éķ": 8444,
      "æĹ¨": 8445,
      "æľ¬è´¨": 8446,
      "å¯Ħ": 8447,
      "Ġshowing": 8448,
      "Ġmarkets": 8449,
      "Ġoption": 8450,
      "æĹłè®º": 8451,
      "è¶ĭåĬ¿": 8452,
      "å¡Ķ": 8453,
      "ĠCNN": 8454,
      "Ġdistingu": 8455,
      "Ġcooked": 8456,
      "ĠService": 8457,
      "éĢĥ": 8458,
      "^{-\\": 8459,
      "\\subset": 8460,
      "ĠLos": 8461,
      "turb": 8462,
      "å¤º": 8463,
      "neg": 8464,
      "çķĻä¸ĭ": 8465,
      "åº¸": 8466,
      "æĭŁ": 8467,
      "alt": 8468,
      "Ġfacts": 8469,
      "å°ĳå¹´": 8470,
      "Ġunderlying": 8471,
      "Ġintegers": 8472,
      "æĮ¯": 8473,
      "quare": 8474,
      "è§ĦèĮĥ": 8475,
      "stood": 8476,
      "gra": 8477,
      "Ġstage": 8478,
      "Ġseason": 8479,
      "Ġlic": 8480,
      "Ġstreet": 8481,
      "æķ´ä½ĵ": 8482,
      "æ¶Īè´¹": 8483,
      "Ġruntime": 8484,
      "é©¬åħĭ": 8485,
      ",æģ": 8486,
      "cor": 8487,
      "ĠAnother": 8488,
      "Ġball": 8489,
      "iced": 8490,
      "osite": 8491,
      "è®ºåĿĽ": 8492,
      "iance": 8493,
      "ä½ĵåĪ¶": 8494,
      "data": 8495,
      "}({\\": 8496,
      "ĠFrancis": 8497,
      "Ġcorresponds": 8498,
      "\\nu": 8499,
      "IL": 8500,
      "_L": 8501,
      "æ··": 8502,
      "Ġrice": 8503,
      "Ġcontribution": 8504,
      "{i": 8505,
      "å¢ŀåĬł": 8506,
      "SC": 8507,
      "'Ċ": 8508,
      "OT": 8509,
      "Ġparticles": 8510,
      "imately": 8511,
      "ĠColle": 8512,
      "Ġsugar": 8513,
      "Ġer": 8514,
      "pe": 8515,
      "{Y": 8516,
      ",åİĨ": 8517,
      "åĨł": 8518,
      "Ġvirtual": 8519,
      "åıĬæĹ¶": 8520,
      "ĠJavaScript": 8521,
      "\\beta": 8522,
      "åį°åĪ·": 8523,
      "Ġadm": 8524,
      "ĠMicro": 8525,
      "Ġideal": 8526,
      "auge": 8527,
      "Ġmissing": 8528,
      "Ġmachines": 8529,
      "lement": 8530,
      "Ġsubsequ": 8531,
      "æĤ¨": 8532,
      "Ġ%": 8533,
      "ç»ĨèĬĤ": 8534,
      "NET": 8535,
      ",ç½ĳç»ľ": 8536,
      "node": 8537,
      "eless": 8538,
      "ĠĠĠĠĠĠĠĠĠĠĠĠĠ": 8539,
      "Ġallowing": 8540,
      "ä¼ĳ": 8541,
      "ĠMichael": 8542,
      "}:": 8543,
      "iant": 8544,
      "Ġdecisions": 8545,
      "Ġpul": 8546,
      "-e": 8547,
      "overnment": 8548,
      "\\mu": 8549,
      "hold": 8550,
      "ç¡¬": 8551,
      "}.ĊĊ": 8552,
      "Ġapparent": 8553,
      "iny": 8554,
      "SP": 8555,
      "ossible": 8556,
      "Ġgrand": 8557,
      "Ġconcerns": 8558,
      "Ã³": 8559,
      "_v": 8560,
      "AD": 8561,
      "Ġsave": 8562,
      "rene": 8563,
      "_T": 8564,
      "____": 8565,
      "ä¾§": 8566,
      "Ġphone": 8567,
      "Ġgone": 8568,
      "unt": 8569,
      "çĽ´æĴŃ": 8570,
      "Ġdemocracy": 8571,
      "èĩ³ä»Ĭ": 8572,
      "Ġaward": 8573,
      "å¼ķèµ·": 8574,
      "Ġdistributed": 8575,
      "fast": 8576,
      "Ġparticle": 8577,
      ",æĽ¾": 8578,
      ")[": 8579,
      "ierarch": 8580,
      ",è¿ĺæĺ¯": 8581,
      "ĠList": 8582,
      "æĥľ": 8583,
      "Ġstrings": 8584,
      "ĠHealth": 8585,
      "åĳĬè¯ī": 8586,
      "å·¥åħ·": 8587,
      "Ġguests": 8588,
      "ĠRev": 8589,
      "First": 8590,
      "eli": 8591,
      "Ġusual": 8592,
      "åľĪ": 8593,
      "æĹ¥å¸¸": 8594,
      "Ġpolicies": 8595,
      "Ġwealth": 8596,
      "uing": 8597,
      "Ġsweet": 8598,
      "Ġyield": 8599,
      "æĤī": 8600,
      "Ġum": 8601,
      "ĠDec": 8602,
      "DF": 8603,
      "Ġshif": 8604,
      "Ġban": 8605,
      "å¹¿æĴŃçĶµè§Ĩ": 8606,
      ",å¼ł": 8607,
      "ç¾¤ä½ĵ": 8608,
      "å½¼": 8609,
      "Ġplus": 8610,
      "è´¾": 8611,
      ")çļĦ": 8612,
      "OU": 8613,
      "Ġvice": 8614,
      "ĠDon": 8615,
      "æİª": 8616,
      "åı¥è¯Ŀ": 8617,
      "æīİ": 8618,
      "éĴĪå¯¹": 8619,
      "ä¹łæĥ¯": 8620,
      "Ġauthorities": 8621,
      "æĦŁåıĹ": 8622,
      "Ġflux": 8623,
      "åİĨåı²çļĦ": 8624,
      "Ġconstit": 8625,
      "ĠClass": 8626,
      "ĠItaly": 8627,
      "çĴ": 8628,
      "\\[]": 8629,
      "-re": 8630,
      "IP": 8631,
      "}}}\\": 8632,
      ",åĴĮ": 8633,
      "Ad": 8634,
      "ching": 8635,
      "Ġexpert": 8636,
      "ĠAngeles": 8637,
      "æııç»ĺ": 8638,
      "Ġmorning": 8639,
      "-v": 8640,
      "è½¼": 8641,
      "list": 8642,
      "çļĦå°ı": 8643,
      "Another": 8644,
      "æµĻ": 8645,
      "ç¦ħ": 8646,
      "_{(": 8647,
      "acc": 8648,
      "Ġtransfer": 8649,
      "è®¡åĪĴ": 8650,
      "Ġdrive": 8651,
      "ĠTex": 8652,
      "Ġmodules": 8653,
      "æĮĩå¯¼": 8654,
      "çļĦæĸĩåŃ¦": 8655,
      "Ġkill": 8656,
      "Ġmatrices": 8657,
      "ston": 8658,
      "Ġentirely": 8659,
      "Ġbomb": 8660,
      "Ġsurr": 8661,
      "ä¼ı": 8662,
      "ĠDis": 8663,
      "fficients": 8664,
      "ÐµÐ½": 8665,
      ",p": 8666,
      "Ġdepth": 8667,
      "Ġintended": 8668,
      "Ġprofit": 8669,
      "ura": 8670,
      "inding": 8671,
      "æĽ¿": 8672,
      "ĠCub": 8673,
      "ĠÐ½": 8674,
      "omy": 8675,
      "Ġmatching": 8676,
      "Ġcomplicated": 8677,
      "Ġnull": 8678,
      "Ġborn": 8679,
      "Ġtopic": 8680,
      "\"åĽĽ": 8681,
      "ĠBay": 8682,
      ",å®ŀ": 8683,
      ",éŁ": 8684,
      "å½ĵçĦ¶": 8685,
      "\"We": 8686,
      "Ġwhatever": 8687,
      "èĤĥ": 8688,
      "åĩłä¹İ": 8689,
      "è¯Ŀè¯Ń": 8690,
      "è¯Ĺè¯į": 8691,
      "ato": 8692,
      "}})": 8693,
      "å¤ļå¹´": 8694,
      "Ġleader": 8695,
      "ĠEr": 8696,
      "Ġremark": 8697,
      "çļĦæĢĿæĥ³": 8698,
      "ĠStarbucks": 8699,
      "vest": 8700,
      "ä¸»åĬ¨": 8701,
      "ĠHamilton": 8702,
      "Ġsymmetry": 8703,
      "è¿ª": 8704,
      "Ġhomes": 8705,
      "Ġrefuge": 8706,
      "ä¸įåĪ°": 8707,
      "Ġcool": 8708,
      "ĠGermany": 8709,
      "Ġlimits": 8710,
      "å±ķå¼Ģ": 8711,
      "_R": 8712,
      "$,Ċ": 8713,
      "Ġinvestigation": 8714,
      "Ġfrequently": 8715,
      "åį±æľº": 8716,
      "note": 8717,
      "Ġrequirements": 8718,
      "Ġmaybe": 8719,
      "èĤī": 8720,
      ".}": 8721,
      "çļĦäººçī©": 8722,
      "brack": 8723,
      "Ġbattle": 8724,
      "Ġappeared": 8725,
      "å®¢æĪ·": 8726,
      "orage": 8727,
      "æµ·å¤ĸ": 8728,
      "æĭĽ": 8729,
      "ypes": 8730,
      "Ġnative": 8731,
      "ĠFurthermore": 8732,
      "Ġseeing": 8733,
      "æ³ķåĽ½": 8734,
      "rim": 8735,
      "figure": 8736,
      "Ġconfir": 8737,
      "Ġtrees": 8738,
      "EL": 8739,
      "ĠRef": 8740,
      "Ġsav": 8741,
      "æĸĩæľ¬": 8742,
      "ĠSpanish": 8743,
      "**]{}": 8744,
      "åħ±äº§åħļ": 8745,
      "gments": 8746,
      "Ġelimin": 8747,
      "Ġregist": 8748,
      "Ġdough": 8749,
      "Ġlooked": 8750,
      "ä¼łæī¿": 8751,
      "Ãł": 8752,
      "æİĮæı¡": 8753,
      "merican": 8754,
      "ogene": 8755,
      "ĠJer": 8756,
      "Ġmotion": 8757,
      "ager": 8758,
      "è°Ĳ": 8759,
      "Ġgroc": 8760,
      "Ġpeace": 8761,
      "åīįçļĦ": 8762,
      "Ġrew": 8763,
      "])": 8764,
      "orial": 8765,
      "æ»¡è¶³": 8766,
      "-H": 8767,
      "å½±åĵįåĬĽ": 8768,
      "Ġdocuments": 8769,
      "ç£¨": 8770,
      "ĠMathemat": 8771,
      "äººæ°ĳæĹ¥æĬ¥": 8772,
      "Ġpartition": 8773,
      "object": 8774,
      "èĭıè½¼": 8775,
      "æ£®": 8776,
      "èĳ£": 8777,
      "Ġ;": 8778,
      "çĶĺ": 8779,
      "ĠWik": 8780,
      "Ġassignment": 8781,
      "Ġpen": 8782,
      "Ġpolar": 8783,
      "_+": 8784,
      "ĠÑģ": 8785,
      "Ġextremely": 8786,
      "unn": 8787,
      "Ġsatisfy": 8788,
      "ĠAir": 8789,
      "Ġassess": 8790,
      "åĩĿ": 8791,
      "istance": 8792,
      "èĤ¡": 8793,
      "æĪıåī§": 8794,
      "ĠGR": 8795,
      "Ġvast": 8796,
      "well": 8797,
      "can": 8798,
      "æĦıåĳ³": 8799,
      "éĢ»": 8800,
      "Ġturns": 8801,
      "ĠCap": 8802,
      "æ³ķå¾ĭ": 8803,
      "Ġcurves": 8804,
      "Ġhypothes": 8805,
      "ĠRodriguez": 8806,
      "ä¸Ľ": 8807,
      "å¸ĸ": 8808,
      "æĺ¯å¯¹": 8809,
      "Ġmacro": 8810,
      "Ġheavy": 8811,
      "çĶ³": 8812,
      "-se": 8813,
      "uous": 8814,
      "éļĨ": 8815,
      "Ġmanip": 8816,
      "éĥİ": 8817,
      "overy": 8818,
      "Ab": 8819,
      "æ´¥": 8820,
      "è®°å¿Ĩ": 8821,
      "lines": 8822,
      "aughter": 8823,
      "Ġrecommend": 8824,
      "Ġ(-": 8825,
      ".è¦ģ": 8826,
      "çĽĳçĿ£": 8827,
      "æĿĥå¨ģ": 8828,
      ".D": 8829,
      "Ġinterests": 8830,
      "Ġraised": 8831,
      "æľĢç»Ī": 8832,
      "ĠIts": 8833,
      "ĠGroup": 8834,
      "ĠDan": 8835,
      "Ġrepeated": 8836,
      "Ġmultiplic": 8837,
      "Ġthrow": 8838,
      "å¾ª": 8839,
      "ptions": 8840,
      "Ġagreement": 8841,
      "ĠAPI": 8842,
      "Ġshell": 8843,
      "è¿Ķ": 8844,
      "ĠProf": 8845,
      "åıªèĥ½": 8846,
      "{})": 8847,
      "æµħ": 8848,
      "ĠYour": 8849,
      "ä»Ĭå¹´": 8850,
      "å®ŀéĻħä¸Ĭ": 8851,
      "onym": 8852,
      "æģ¨": 8853,
      "é²ľæĺİ": 8854,
      "éģĵè·¯": 8855,
      "Ġinner": 8856,
      "unched": 8857,
      "Ġprofession": 8858,
      "Ġ($\\": 8859,
      "Ġvectors": 8860,
      "ĠUN": 8861,
      "abil": 8862,
      "Ġautomatically": 8863,
      "éĽķ": 8864,
      "æĻºèĥ½": 8865,
      "ä½¿åĳ½": 8866,
      "Ġwidth": 8867,
      ",åĸ": 8868,
      ",æĦı": 8869,
      ",å¿ĥ": 8870,
      "Ġphil": 8871,
      "yl": 8872,
      "Ġpairs": 8873,
      "ä¸ĸçķĮçļĦ": 8874,
      "Ġborder": 8875,
      "æ³ī": 8876,
      "Ġcos": 8877,
      "Ġyields": 8878,
      "ifier": 8879,
      "ç½²": 8880,
      "ĠGeneral": 8881,
      "perp": 8882,
      "ĠäºĮ": 8883,
      "\\rightarrow": 8884,
      "Ġviews": 8885,
      "ä¸»å¼ł": 8886,
      "ette": 8887,
      "zero": 8888,
      "ä¸ªæĢ§": 8889,
      "ä¸»äºº": 8890,
      "Ġexcell": 8891,
      "èĲ§": 8892,
      "multic": 8893,
      "ĠBoth": 8894,
      "ç»©": 8895,
      "æ²»çĲĨ": 8896,
      "è¿Ľè¡ĮäºĨ": 8897,
      "Ġbir": 8898,
      "Ġethnic": 8899,
      "æĿĲæĸĻ": 8900,
      "\\[Ċ": 8901,
      "æ¬§æ´²": 8902,
      "bon": 8903,
      "Ġthick": 8904,
      "opped": 8905,
      "dash": 8906,
      "ĠUnder": 8907,
      "Ġemail": 8908,
      "Ġlegis": 8909,
      "åĨ°": 8910,
      "Ġorganized": 8911,
      "èĻİ": 8912,
      "Ġcolleag": 8913,
      "Ġenvironmental": 8914,
      "ĠMac": 8915,
      "Ġobjective": 8916,
      "çĸı": 8917,
      "çļĦåľ°æĸ¹": 8918,
      "imb": 8919,
      "cho": 8920,
      "Ġid": 8921,
      ",å¹³": 8922,
      ",åıªæľī": 8923,
      "Ġoverl": 8924,
      ".M": 8925,
      "åıĺå¾Ĺ": 8926,
      "çħ§çīĩ": 8927,
      "Ġsubstant": 8928,
      "Ġtrac": 8929,
      "Ġexperts": 8930,
      "Ġwitness": 8931,
      "Ġdeveloping": 8932,
      "éĽĨä¸Ń": 8933,
      "unctions": 8934,
      "\\hline": 8935,
      "åı¤åħ¸": 8936,
      "Ġsuggested": 8937,
      "çĶ»çļĦ": 8938,
      "Ġleadership": 8939,
      "ami": 8940,
      "going": 8941,
      "ç¾½": 8942,
      "ĠBen": 8943,
      ",{\\": 8944,
      "ympt": 8945,
      "Ġdiss": 8946,
      "Ġprecisely": 8947,
      "\\])": 8948,
      "ç«ĭåľº": 8949,
      "icious": 8950,
      "multicolumn": 8951,
      "Cons": 8952,
      ",æĸĩåĮĸ": 8953,
      "ipal": 8954,
      "utrition": 8955,
      "Ġcold": 8956,
      "è®©äºº": 8957,
      "Ġselected": 8958,
      "ĠStand": 8959,
      ",z": 8960,
      "function": 8961,
      "Ġjoint": 8962,
      "ricane": 8963,
      "{split": 8964,
      "Ġspeak": 8965,
      "æ¬¾": 8966,
      "ĠLou": 8967,
      "çľĭæĿ¥": 8968,
      "åĿ¦": 8969,
      "_e": 8970,
      "\\lambda": 8971,
      "ih": 8972,
      "}$$ĊĊ": 8973,
      "Ġpresentation": 8974,
      "æĸ°éĹ»æĬ¥éģĵ": 8975,
      "Ġiniti": 8976,
      "Ġtransport": 8977,
      "çĸ¾": 8978,
      "_g": 8979,
      "seud": 8980,
      "Ġcens": 8981,
      "Ġsubt": 8982,
      "çĳŀ": 8983,
      "Ġstored": 8984,
      "astron": 8985,
      "kin": 8986,
      "Ġmomentum": 8987,
      "ĠThose": 8988,
      "ĠView": 8989,
      "Im": 8990,
      "åŁºå±Ĥ": 8991,
      "Figure": 8992,
      "Ġinterval": 8993,
      "åĨ¬": 8994,
      "Ġobservation": 8995,
      "Ġlattice": 8996,
      ",ä¸ī": 8997,
      "ica": 8998,
      "Ġarrest": 8999,
      "Ġmessages": 9000,
      "Ġcompile": 9001,
      "èįĲ": 9002,
      "Ġincorpor": 9003,
      "ecial": 9004,
      "åĽ°éļ¾": 9005,
      "Ġkids": 9006,
      ",æĦŁ": 9007,
      "Ġcapacity": 9008,
      "åį°è±¡": 9009,
      "ĠSunday": 9010,
      "\"è¯Ĺ": 9011,
      "Ġsimulation": 9012,
      "ĠSyrian": 9013,
      "éķ¿çļĦ": 9014,
      "Ġroad": 9015,
      "Ġment": 9016,
      "æ¶¦": 9017,
      "edy": 9018,
      "VM": 9019,
      "Ġinvariant": 9020,
      "Ġactivities": 9021,
      "Ġhealthy": 9022,
      "éĢłæĪĲ": 9023,
      "Ġpizza": 9024,
      "Ġexpensive": 9025,
      "Ġreplaced": 9026,
      "ĠLisp": 9027,
      "Ġconcerned": 9028,
      "Ġnone": 9029,
      "agon": 9030,
      "ĠSur": 9031,
      "æıĲä¾ĽäºĨ": 9032,
      "ĠInte": 9033,
      ",æ¯Ķå¦Ĥ": 9034,
      "ounds": 9035,
      "å§Ĩ": 9036,
      "éĢ»è¾ĳ": 9037,
      "Ġsymmetric": 9038,
      "Ġconsumption": 9039,
      "é¾Ħ": 9040,
      "herent": 9041,
      "rons": 9042,
      "real": 9043,
      "Ġdinner": 9044,
      "Ġfigures": 9045,
      "izer": 9046,
      "Ġapprec": 9047,
      "ĠTop": 9048,
      "éĵ¾": 9049,
      "Ġimpossible": 9050,
      ",å¢ŀ": 9051,
      "Ġcoefficients": 9052,
      "Ġsoup": 9053,
      "ä¸įè¦ģ": 9054,
      "Ġopening": 9055,
      "zed": 9056,
      "éĽ¶": 9057,
      ",åĮĹ": 9058,
      "çİ©": 9059,
      "Ġfailure": 9060,
      "Ġrobust": 9061,
      "Ġfamous": 9062,
      "\"åŃĹ": 9063,
      "ĠRed": 9064,
      "inos": 9065,
      "Ġnorth": 9066,
      "Ġabstraction": 9067,
      "èĪĨæĥħ": 9068,
      "Ġaccurate": 9069,
      "è¿Ļæľ¬ä¹¦": 9070,
      "æ¤į": 9071,
      "opt": 9072,
      "å£ģ": 9073,
      "æģĭ": 9074,
      ".åĽłä¸º": 9075,
      "åĢ¡": 9076,
      "ĠAM": 9077,
      "Ġadjust": 9078,
      "æĶ¶åħ¥": 9079,
      "Ġvill": 9080,
      "ĠTime": 9081,
      "çĽĺ": 9082,
      "Ġsupports": 9083,
      "Ġschools": 9084,
      "Ġpossibly": 9085,
      "ä¾ĿçĦ¶": 9086,
      "æŁĲç§į": 9087,
      "_B": 9088,
      "è¿Ļä¹Ī": 9089,
      "åĩĨç¡®": 9090,
      "åĽ´ç»ķ": 9091,
      "äººåľ¨": 9092,
      "Ġlocated": 9093,
      "hens": 9094,
      "æĹ¶æĬ¥": 9095,
      "æī¾åĪ°": 9096,
      ",ä¸¤": 9097,
      "Ġcomposition": 9098,
      "Ġcreation": 9099,
      "Ġbounds": 9100,
      "ht": 9101,
      "åĲĮå¿Ĺ": 9102,
      "Ġpublication": 9103,
      "Ġmolec": 9104,
      "Ġputting": 9105,
      ",å®ŀçİ°": 9106,
      "ä¿¡æģ¯çļĦ": 9107,
      "ours": 9108,
      "Ġcircle": 9109,
      "oyal": 9110,
      "Ġprofile": 9111,
      "etime": 9112,
      ",è¯´": 9113,
      "Ġworker": 9114,
      "Ġarchitecture": 9115,
      "åħ·å¤ĩ": 9116,
      "ç¨¿ä»¶": 9117,
      "_S": 9118,
      "å±ĭ": 9119,
      "åľ°éľĩ": 9120,
      "ĠTwo": 9121,
      "gypt": 9122,
      "ä½ľåĵģçļĦ": 9123,
      "èİ±": 9124,
      "çªģçł´": 9125,
      "Ġangle": 9126,
      "ĠPR": 9127,
      "Ġletter": 9128,
      "Ġgrew": 9129,
      "ĠHistory": 9130,
      "æ²¿": 9131,
      "åı¦å¤ĸ": 9132,
      "Ġeffectively": 9133,
      "äºŃ": 9134,
      "Ġ==": 9135,
      ",ä½ľèĢħ": 9136,
      "åĩºæĿ¥çļĦ": 9137,
      "Ġemployee": 9138,
      "Ġvegetables": 9139,
      "ND": 9140,
      "èµĸ": 9141,
      "Ġbias": 9142,
      "Ġdenotes": 9143,
      "ĠMal": 9144,
      "Ġaware": 9145,
      "kes": 9146,
      "Ġconfiguration": 9147,
      "Ġexternal": 9148,
      "ading": 9149,
      "}/": 9150,
      "èĢĥèĻĳ": 9151,
      "standing": 9152,
      "ortion": 9153,
      "rule": 9154,
      "å®Įæķ´": 9155,
      "aussian": 9156,
      "Ġprime": 9157,
      "(b": 9158,
      "Ġunderstood": 9159,
      "ĠRobert": 9160,
      ",ä¼ļ": 9161,
      "abb": 9162,
      "Ġgram": 9163,
      "åĪ¤æĸŃ": 9164,
      "Ġmillions": 9165,
      "Ġbus": 9166,
      "æĳ©": 9167,
      "Ġmathematics": 9168,
      "Ġreferences": 9169,
      "Ġcorrelation": 9170,
      "Ġexperi": 9171,
      "izon": 9172,
      "Rec": 9173,
      "Ġcrucial": 9174,
      "ĠMcC": 9175,
      "Ġextent": 9176,
      "æĬĢå·§": 9177,
      "éĥĳ": 9178,
      "Ġsched": 9179,
      "riving": 9180,
      "ether": 9181,
      "ĠCO": 9182,
      ",æ¬": 9183,
      "Ġcomputational": 9184,
      "å·¥ç¨ĭ": 9185,
      "ĠColl": 9186,
      "Ġplaced": 9187,
      "cont": 9188,
      "Ġspending": 9189,
      "Ġcoding": 9190,
      "åĨľæ°ĳ": 9191,
      "Ġconstructed": 9192,
      "rint": 9193,
      "ĠThomas": 9194,
      "éĤ£æł·": 9195,
      "ĠMil": 9196,
      "Ġtermin": 9197,
      "åįĪ": 9198,
      "Ġcrime": 9199,
      "limits": 9200,
      ",ä¸Ĭ": 9201,
      "\\phi": 9202,
      "yset": 9203,
      ".ä»¥": 9204,
      "é¥°": 9205,
      "éŃĶ": 9206,
      "ĠSouthern": 9207,
      "çģ¯": 9208,
      "Ġunless": 9209,
      "åĪ«äºº": 9210,
      "dagger": 9211,
      "ĠRem": 9212,
      "Ġens": 9213,
      "roy": 9214,
      "ĠÐ¸": 9215,
      "Ġcarry": 9216,
      "Ġthreads": 9217,
      "Ġshot": 9218,
      "ashion": 9219,
      "Ġ(\"": 9220,
      "Ġmanner": 9221,
      "emptyset": 9222,
      "æĦŁè§ī": 9223,
      "Ġgauge": 9224,
      "Ġchannels": 9225,
      "'(": 9226,
      "ç¥ŀè¯Ŀ": 9227,
      "]ĊĊ": 9228,
      "ĠCouncil": 9229,
      "sem": 9230,
      "Ġcomplain": 9231,
      "Ġran": 9232,
      ",åıĹ": 9233,
      "Ġexponential": 9234,
      "ester": 9235,
      "ĠLee": 9236,
      "åħ¬åħĥ": 9237,
      "Ġextend": 9238,
      "ingly": 9239,
      "Ġdesired": 9240,
      "word": 9241,
      "è¹": 9242,
      "Ġcard": 9243,
      "Ġbills": 9244,
      "åľºæĻ¯": 9245,
      "rol": 9246,
      "æĺ¯ä¸į": 9247,
      "Ġexperimental": 9248,
      "field": 9249,
      "éĢ¸": 9250,
      "ĠSand": 9251,
      "æ¸Ĭ": 9252,
      "DA": 9253,
      "åĪĢ": 9254,
      "ĠLaw": 9255,
      "åľ¨ä¸ŃåĽ½": 9256,
      "Ġcollabor": 9257,
      "æĸĩçĮ®": 9258,
      ")$-": 9259,
      ",å¤©": 9260,
      "Ġsurprising": 9261,
      "Ġcompat": 9262,
      "Ġinvestment": 9263,
      "å¤ļå°ĳ": 9264,
      "}$-": 9265,
      "idth": 9266,
      "å¼ıçļĦ": 9267,
      "illeg": 9268,
      "æĸ°åįİ": 9269,
      "mann": 9270,
      "Ġnotice": 9271,
      "idel": 9272,
      "-qu": 9273,
      "Pe": 9274,
      "Ġacknow": 9275,
      "ĠST": 9276,
      "èµ¢": 9277,
      "Ġtrain": 9278,
      "ili": 9279,
      "Ġcontained": 9280,
      "éģ¿åħį": 9281,
      "size": 9282,
      "Ġsupply": 9283,
      "Ġrevolution": 9284,
      "ĠFe": 9285,
      "ĠOut": 9286,
      "Ġwindow": 9287,
      "->": 9288,
      "Ġrig": 9289,
      "anged": 9290,
      "Ġnumerous": 9291,
      "é©¬åħĭæĢĿ": 9292,
      "Ġneither": 9293,
      "å¥Ķ": 9294,
      ",ä¼łæĴŃ": 9295,
      "Ġmaster": 9296,
      "Ġgun": 9297,
      "Ġabsor": 9298,
      "ä¸¥éĩį": 9299,
      "Ġcluster": 9300,
      "ĠDaily": 9301,
      "Ġsimulations": 9302,
      "endix": 9303,
      "ĠVal": 9304,
      ",æĪĸèĢħ": 9305,
      "Ġfilled": 9306,
      "ä¸Ńæĸĩ": 9307,
      "Ġfunctionality": 9308,
      "ä¹¦çļĦ": 9309,
      "æ´ª": 9310,
      "Ġcarried": 9311,
      "Ġtheoretical": 9312,
      "SA": 9313,
      "icated": 9314,
      "åŁºç¡Ģä¸Ĭ": 9315,
      "ao": 9316,
      "ng": 9317,
      "çĶµåı°": 9318,
      "å¢ŀå¼º": 9319,
      "IG": 9320,
      "Tr": 9321,
      "åŃ¦å®¶": 9322,
      ".åĲĮæĹ¶": 9323,
      "]{}]{}": 9324,
      "åı¯è§ģ": 9325,
      "å¦Ī": 9326,
      "Ġsandw": 9327,
      "Ġsolving": 9328,
      "éĢĿ": 9329,
      ",èĻ½çĦ¶": 9330,
      "Ġ--------": 9331,
      "æĽ´ä¸º": 9332,
      "Ġharder": 9333,
      "ĠConsider": 9334,
      "ĠUK": 9335,
      "ano": 9336,
      "æĽ¼": 9337,
      "Ġradius": 9338,
      "è´Ń": 9339,
      "Ġresolution": 9340,
      "ibri": 9341,
      "åıĤèĢĥ": 9342,
      "èĿ": 9343,
      "Ġcouldn": 9344,
      "èĩ³äºİ": 9345,
      "Ġrely": 9346,
      ",r": 9347,
      "Ġearth": 9348,
      "umerate": 9349,
      "ĠGreat": 9350,
      "ĠSee": 9351,
      "ifferent": 9352,
      "ĠVis": 9353,
      ",åĲĳ": 9354,
      "ä¾ł": 9355,
      "Ġhierarch": 9356,
      "çº½çº¦": 9357,
      "æĳĨ": 9358,
      "Ġmanagers": 9359,
      "Ġpaying": 9360,
      "ibilities": 9361,
      "æĺ¯ä»Ģä¹Ī": 9362,
      "olar": 9363,
      "Ġcharacters": 9364,
      "Ġkernel": 9365,
      "æĻ®éģį": 9366,
      "Ġliterature": 9367,
      "Ġreserv": 9368,
      ",ä¸įæĸŃ": 9369,
      "è¾©": 9370,
      "Ġ}\\": 9371,
      ",å°½": 9372,
      "Ġparad": 9373,
      "colon": 9374,
      "Ġordered": 9375,
      "åĵĢ": 9376,
      ",çĽ´": 9377,
      "-class": 9378,
      "~$": 9379,
      "Ġdistributions": 9380,
      "group": 9381,
      ",éķ¿": 9382,
      "ĠLanguage": 9383,
      "olve": 9384,
      ")/": 9385,
      "Ġdepartment": 9386,
      "Ġrace": 9387,
      ")\\,": 9388,
      "Ġrot": 9389,
      "çľŁçĽ¸": 9390,
      "\\!\\!": 9391,
      "Ġassumed": 9392,
      "Ġtreatment": 9393,
      "Ġheight": 9394,
      "è¿Ŀ": 9395,
      "èīºæľ¯å®¶": 9396,
      "çģµéŃĤ": 9397,
      "åĭĥ": 9398,
      "å¹¸ç¦ı": 9399,
      "æŀĿ": 9400,
      "*{": 9401,
      "Ġce": 9402,
      "ĠGiven": 9403,
      "æĦŁæĥħ": 9404,
      "plom": 9405,
      "Ġnuclear": 9406,
      "Ġsharing": 9407,
      "ĠRussian": 9408,
      "ä¸įè¶³": 9409,
      "ç¬¦åĲĪ": 9410,
      "Ġliqu": 9411,
      "çļĦæĹ¶ä»£": 9412,
      "ishes": 9413,
      "Ġfailed": 9414,
      "å¤ĸåĽ½": 9415,
      "Ġremoved": 9416,
      "omorphic": 9417,
      "Ġinj": 9418,
      ",åĨħå®¹": 9419,
      "Sim": 9420,
      "Ġeleg": 9421,
      ",æ¶": 9422,
      "Ġcond": 9423,
      "ollary": 9424,
      "Ġpm": 9425,
      "Ġemployment": 9426,
      "Ġdisapp": 9427,
      "é©»": 9428,
      "Ġmenus": 9429,
      "Ġworse": 9430,
      "çºªå¿µ": 9431,
      "\\b": 9432,
      "å¤ļåħĥ": 9433,
      "ĠTexas": 9434,
      "çīĻ": 9435,
      "CR": 9436,
      "Ġinvolve": 9437,
      "ilibri": 9438,
      "å¼¹": 9439,
      "Ġshoot": 9440,
      "ĠBlack": 9441,
      ".R": 9442,
      "urance": 9443,
      "Ġimproved": 9444,
      ",æ´": 9445,
      "ĠCollege": 9446,
      "Ġ$-": 9447,
      "ĠJul": 9448,
      "ä¹ĭå¤Ħ": 9449,
      "Ġconvergence": 9450,
      "Ġwhereas": 9451,
      "Ġexecuted": 9452,
      "Ġhospitality": 9453,
      "CP": 9454,
      "æĬµ": 9455,
      "è§£è¯»": 9456,
      "}}_{\\": 9457,
      "åĨħæ¶µ": 9458,
      "{J": 9459,
      "Ġoccurs": 9460,
      "Ġcategories": 9461,
      "Ġrecords": 9462,
      "ĠGaz": 9463,
      "éģ¥": 9464,
      "Ġdream": 9465,
      "ä¸Ģä¸ĭ": 9466,
      "bec": 9467,
      "ĠInc": 9468,
      ",æľ¬": 9469,
      "Ġdecide": 9470,
      "Ġspot": 9471,
      "$}": 9472,
      "çĵ¦": 9473,
      "ymmet": 9474,
      "Ġä¸ī": 9475,
      "çļĦäººçĶŁ": 9476,
      "åŃ¦çļĦ": 9477,
      "Ġmeasurements": 9478,
      ",é¡": 9479,
      "-mail": 9480,
      "Ġdimensions": 9481,
      "ĠUp": 9482,
      "ä¸Ģä¸ªäºº": 9483,
      "ĠBel": 9484,
      "ĠSen": 9485,
      "éģµ": 9486,
      "Ġ=Ċ": 9487,
      "Ġlocally": 9488,
      "è¨Ģè®º": 9489,
      "Ġcombin": 9490,
      "Ġweapons": 9491,
      "éļĶ": 9492,
      "Ġconclude": 9493,
      "\\],": 9494,
      "æ¸ħæ¥ļ": 9495,
      "ä¸»ä»»": 9496,
      "Ġquas": 9497,
      "ĠCommission": 9498,
      "ĠParis": 9499,
      ")}(": 9500,
      "ĠEgypt": 9501,
      "indent": 9502,
      "-G": 9503,
      "Ġblue": 9504,
      "Ġmission": 9505,
      "ĠĠĠĠĠĠĠĠĠĠĠĠĠĠ": 9506,
      "ula": 9507,
      ".$$": 9508,
      "Ġintelligence": 9509,
      "Ġgrant": 9510,
      "%,": 9511,
      "é¦ĸè¯Ĺ": 9512,
      "-k": 9513,
      "(m": 9514,
      "olumb": 9515,
      ",ä¸»è¦ģ": 9516,
      "ç¼©": 9517,
      "ĠGeorge": 9518,
      ",q": 9519,
      "state": 9520,
      "ç¼ºä¹ı": 9521,
[...]
